<unk>	0
<s>	0
</s>	0
▁t	-0
▁a	-1
he	-2
in	-3
▁o	-4
re	-5
er	-6
▁the	-7
▁c	-8
▁s	-9
on	-10
at	-11
is	-12
es	-13
an	-14
en	-15
or	-16
▁f	-17
al	-18
▁p	-19
▁b	-20
▁an	-21
▁w	-22
it	-23
▁of	-24
ou	-25
▁m	-26
ar	-27
▁in	-28
ed	-29
ic	-30
▁d	-31
▁and	-32
ing	-33
▁to	-34
ro	-35
▁is	-36
le	-37
ion	-38
as	-39
▁T	-40
▁h	-41
▁l	-42
us	-43
ct	-44
om	-45
▁th	-46
▁n	-47
il	-48
▁e	-49
ent	-50
st	-51
▁re	-52
▁y	-53
ve	-54
ly	-55
et	-56
▁A	-57
▁g	-58
▁for	-59
id	-60
▁The	-61
ol	-62
am	-63
▁you	-64
▁or	-65
▁I	-66
ot	-67
▁S	-68
el	-69
ow	-70
ur	-71
▁1	-72
ver	-73
▁on	-74
im	-75
ut	-76
ig	-77
▁C	-78
▁be	-79
▁are	-80
ce	-81
ch	-82
ay	-83
ation	-84
▁(	-85
od	-86
ul	-87
▁as	-88
ra	-89
ge	-90
▁st	-91
▁that	-92
ir	-93
un	-94
ith	-95
os	-96
▁pro	-97
um	-98
▁wh	-99
▁with	-100
▁it	-101
▁2	-102
▁con	-103
00	-104
▁M	-105
th	-106
▁al	-107
if	-108
her	-109
▁P	-110
oun	-111
ter	-112
rom	-113
ate	-114
ost	-115
em	-116
▁B	-117
ad	-118
▁can	-119
▁v	-120
est	-121
▁com	-122
▁de	-123
ab	-124
▁us	-125
ers	-126
pe	-127
▁r	-128
▁from	-129
ure	-130
ill	-131
▁F	-132
op	-133
ess	-134
▁$	-135
ist	-136
▁by	-137
ak	-138
ore	-139
▁D	-140
▁your	-141
ain	-142
▁ex	-143
ac	-144
ies	-145
qu	-146
ant	-147
▁he	-148
ive	-149
all	-150
age	-151
▁H	-152
and	-153
▁E	-154
igh	-155
▁R	-156
▁at	-157
oc	-158
▁W	-159
▁se	-160
ment	-161
ally	-162
se	-163
ell	-164
▁ch	-165
art	-166
up	-167
ine	-168
ri	-169
▁ha	-170
ect	-171
▁In	-172
ood	-173
▁k	-174
▁N	-175
▁per	-176
ity	-177
ere	-178
end	-179
▁L	-180
our	-181
ort	-182
▁G	-183
ary	-184
▁ne	-185
ld	-186
iv	-187
ia	-188
▁3	-189
res	-190
▁le	-191
▁O	-192
ome	-193
ich	-194
ound	-195
ast	-196
per	-197
▁ab	-198
▁pl	-199
ud	-200
act	-201
ame	-202
▁sh	-203
ear	-204
▁have	-205
▁not	-206
▁su	-207
ated	-208
out	-209
pt	-210
ight	-211
ans	-212
pl	-213
▁un	-214
▁inc	-215
og	-216
ide	-217
▁which	-218
ial	-219
ther	-220
ag	-221
ical	-222
du	-223
▁ca	-224
▁U	-225
▁was	-226
..	-227
ust	-228
▁me	-229
so	-230
▁comp	-231
▁It	-232
▁cont	-233
).	-234
ition	-235
▁wor	-236
ard	-237
▁whe	-238
cc	-239
ong	-240
orm	-241
gh	-242
▁do	-243
ase	-244
ip	-245
ib	-246
▁dis	-247
▁int	-248
red	-249
iz	-250
▁sy	-251
▁will	-252
ous	-253
▁year	-254
one	-255
▁ad	-256
ater	-257
▁Th	-258
ough	-259
ction	-260
▁j	-261
▁this	-262
▁bl	-263
▁also	-264
▁we	-265
▁other	-266
▁one	-267
ice	-268
▁all	-269
ake	-270
▁ar	-271
ep	-272
ff	-273
▁has	-274
ree	-275
▁en	-276
ount	-277
der	-278
▁more	-279
▁sp	-280
nt	-281
▁4	-282
ru	-283
ke	-284
ry	-285
▁cost	-286
▁cl	-287
▁used	-288
▁but	-289
ates	-290
ult	-291
▁fe	-292
▁up	-293
ose	-294
ass	-295
ould	-296
ok	-297
own	-298
▁St	-299
▁res	-300
▁ap	-301
▁most	-302
▁may	-303
▁ty	-304
verage	-305
ach	-306
ph	-307
▁inf	-308
▁co	-309
any	-310
vel	-311
ance	-312
ens	-313
000	-314
▁fl	-315
able	-316
▁im	-317
ish	-318
▁than	-319
▁about	-320
ber	-321
ue	-322
▁name	-323
use	-324
▁form	-325
port	-326
▁J	-327
ick	-328
ace	-329
▁ro	-330
we	-331
are	-332
▁Y	-333
ire	-334
ile	-335
ie	-336
te	-337
erm	-338
▁part	-339
ime	-340
▁comm	-341
▁An	-342
ap	-343
ack	-344
ord	-345
▁sal	-346
lud	-347
▁cell	-348
▁they	-349
pec	-350
▁5	-351
▁average	-352
ian	-353
ind	-354
▁This	-355
ite	-356
av	-357
reat	-358
ions	-359
▁so	-360
▁col	-361
▁li	-362
ang	-363
ays	-364
▁bet	-365
ub	-366
ular	-367
▁includ	-368
▁its	-369
▁V	-370
ks	-371
,000	-372
ents	-373
▁what	-374
▁kn	-375
▁20	-376
▁gr	-377
▁out	-378
ail	-379
very	-380
▁tw	-381
ody	-382
ple	-383
iff	-384
ress	-385
▁produ	-386
ric	-387
erv	-388
▁into	-389
ob	-390
▁their	-391
▁gen	-392
row	-393
les	-394
▁pre	-395
▁pe	-396
ors	-397
uc	-398
▁call	-399
▁when	-400
▁K	-401
ign	-402
▁am	-403
▁$1	-404
irst	-405
▁min	-406
ence	-407
▁how	-408
▁body	-409
▁tr	-410
▁19	-411
▁blood	-412
ations	-413
▁some	-414
ne	-415
ually	-416
▁if	-417
stem	-418
ond	-419
ature	-420
als	-421
▁If	-422
ween	-423
ove	-424
▁use	-425
ium	-426
▁tra	-427
ory	-428
▁car	-429
▁sc	-430
▁two	-431
▁diff	-432
▁over	-433
▁med	-434
ild	-435
▁ra	-436
),	-437
▁between	-438
▁ph	-439
ll	-440
▁bec	-441
▁ac	-442
▁any	-443
▁pr	-444
land	-445
dition	-446
ons	-447
▁spec	-448
ange	-449
ces	-450
cess	-451
▁time	-452
▁called	-453
▁such	-454
▁water	-455
▁years	-456
lect	-457
▁first	-458
ven	-459
mer	-460
▁qu	-461
ific	-462
ople	-463
oth	-464
▁who	-465
▁cons	-466
▁sm	-467
▁te	-468
ins	-469
▁ear	-470
ten	-471
hes	-472
tern	-473
▁Ch	-474
▁system	-475
▁6	-476
▁che	-477
▁sur	-478
▁rec	-479
▁hour	-480
▁acc	-481
ren	-482
int	-483
▁off	-484
▁mon	-485
iss	-486
▁common	-487
▁need	-488
ys	-489
ert	-490
▁dep	-491
ings	-492
▁Un	-493
▁ag	-494
ax	-495
ari	-496
ual	-497
▁long	-498
▁ind	-499
rough	-500
ck	-501
olog	-502
ef	-503
▁differe	-504
▁go	-505
▁work	-506
▁typ	-507
gan	-508
▁people	-509
▁lar	-510
▁mus	-511
pro	-512
▁only	-513
▁food	-514
oll	-515
▁ref	-516
▁like	-517
fter	-518
▁reg	-519
▁loc	-520
hen	-521
rit	-522
ced	-523
ade	-524
▁found	-525
▁get	-526
ower	-527
▁many	-528
▁there	-529
▁po	-530
...	-531
ffect	-532
▁act	-533
ook	-534
ark	-535
▁di	-536
▁201	-537
acter	-538
▁met	-539
▁For	-540
▁through	-541
ited	-542
▁sub	-543
▁10	-544
cy	-545
its	-546
▁tem	-547
uch	-548
ym	-549
▁bas	-550
ating	-551
▁As	-552
▁dise	-553
▁You	-554
▁des	-555
50	-556
▁does	-557
▁cells	-558
▁make	-559
▁high	-560
ps	-561
ative	-562
▁num	-563
ism	-564
old	-565
ments	-566
▁known	-567
vers	-568
▁trans	-569
ix	-570
▁caus	-571
ants	-572
ause	-573
▁should	-574
aw	-575
ov	-576
cent	-577
▁rel	-578
▁where	-579
▁fun	-580
urn	-581
▁pers	-582
rib	-583
▁sk	-584
▁def	-585
▁em	-586
ram	-587
▁under	-588
ily	-589
▁ass	-590
▁hel	-591
orn	-592
▁exam	-593
▁small	-594
ath	-595
ran	-596
oy	-597
uring	-598
ered	-599
▁them	-600
▁-	-601
▁mean	-602
▁been	-603
alth	-604
▁vari	-605
▁different	-606
ft	-607
▁sup	-608
▁usually	-609
▁occ	-610
▁musc	-611
▁7	-612
▁Al	-613
ject	-614
omet	-615
erg	-616
▁pay	-617
ract	-618
▁after	-619
▁month	-620
perature	-621
▁$2	-622
ron	-623
ically	-624
▁char	-625
▁En	-626
▁Se	-627
▁ins	-628
▁prov	-629
ink	-630
▁gener	-631
▁type	-632
▁much	-633
oss	-634
▁process	-635
▁made	-636
ient	-637
▁salary	-638
▁then	-639
gen	-640
inal	-641
ied	-642
oms	-643
▁bel	-644
▁person	-645
▁organ	-646
▁inst	-647
▁often	-648
▁requ	-649
ise	-650
ases	-651
ral	-652
▁temperature	-653
fore	-654
▁There	-655
▁these	-656
ics	-657
▁Ne	-658
meric	-659
▁contain	-660
ox	-661
▁sym	-662
hed	-663
▁8	-664
▁new	-665
▁man	-666
ible	-667
▁very	-668
▁were	-669
ts	-670
▁rem	-671
▁sim	-672
rain	-673
▁no	-674
▁Re	-675
▁each	-676
▁disease	-677
▁day	-678
▁deg	-679
▁well	-680
▁infect	-681
▁cent	-682
▁term	-683
ines	-684
▁around	-685
gs	-686
▁bu	-687
ational	-688
▁depend	-689
▁days	-690
get	-691
▁test	-692
▁grow	-693
▁...	-694
▁cal	-695
vent	-696
ale	-697
▁sec	-698
ful	-699
▁level	-700
▁ext	-701
▁Americ	-702
imes	-703
yd	-704
▁pain	-705
▁serv	-706
0.	-707
▁number	-708
▁take	-709
ists	-710
▁pop	-711
▁How	-712
ize	-713
NA	-714
akes	-715
▁include	-716
ole	-717
aking	-718
ex	-719
ty	-720
▁cause	-721
ages	-722
▁pres	-723
▁att	-724
▁minut	-725
▁exp	-726
▁18	-727
▁sa	-728
▁main	-729
ever	-730
▁sl	-731
▁wee	-732
▁would	-733
wn	-734
▁treat	-735
ble	-736
ility	-737
▁just	-738
ious	-739
ness	-740
▁ve	-741
▁bre	-742
▁gl	-743
ting	-744
▁because	-745
pect	-746
▁Con	-747
other	-748
▁hum	-749
ized	-750
▁end	-751
▁his	-752
▁occur	-753
▁They	-754
yl	-755
ities	-756
▁health	-757
ull	-758
ros	-759
▁add	-760
▁count	-761
ger	-762
▁less	-763
▁amount	-764
ows	-765
ars	-766
cul	-767
▁Wh	-768
▁op	-769
cer	-770
outh	-771
▁three	-772
▁example	-773
velop	-774
ock	-775
ural	-776
▁comple	-777
▁elect	-778
ool	-779
ork	-780
▁det	-781
▁help	-782
ife	-783
▁9	-784
arm	-785
▁mem	-786
cl	-787
▁He	-788
oh	-789
▁grou	-790
▁$3	-791
form	-792
▁same	-793
ergy	-794
oot	-795
▁start	-796
▁condition	-797
▁ent	-798
iod	-799
bs	-800
ruct	-801
▁hours	-802
oci	-803
▁pat	-804
▁sign	-805
▁percent	-806
▁ke	-807
els	-808
▁home	-809
▁skin	-810
gl	-811
ident	-812
▁back	-813
▁dist	-814
ides	-815
cept	-816
ution	-817
com	-818
air	-819
ids	-820
▁United	-821
imate	-822
tle	-823
▁state	-824
ures	-825
▁set	-826
▁Pro	-827
▁range	-828
▁incre	-829
▁When	-830
tal	-831
▁Com	-832
▁fam	-833
here	-834
▁import	-835
▁“	-836
▁large	-837
▁inv	-838
▁area	-839
▁heart	-840
▁minutes	-841
▁br	-842
▁result	-843
▁ret	-844
▁orig	-845
▁develop	-846
▁fact	-847
▁both	-848
▁stud	-849
▁while	-850
▁child	-851
ted	-852
▁world	-853
▁good	-854
▁before	-855
▁fat	-856
▁my	-857
▁Ad	-858
▁during	-859
▁est	-860
aries	-861
▁val	-862
▁air	-863
▁mil	-864
▁12	-865
gest	-866
▁1.	-867
▁To	-868
▁cur	-869
▁costs	-870
▁effect	-871
▁product	-872
▁States	-873
▁cre	-874
▁age	-875
▁types	-876
▁sol	-877
▁function	-878
▁resp	-879
ptoms	-880
ormal	-881
▁prote	-882
rees	-883
▁means	-884
▁gra	-885
▁hig	-886
ices	-887
ones	-888
ording	-889
▁200	-890
▁meaning	-891
▁low	-892
ience	-893
▁word	-894
ology	-895
ined	-896
▁see	-897
▁our	-898
ning	-899
▁inform	-900
ator	-901
▁job	-902
▁foll	-903
ased	-904
▁bacter	-905
aj	-906
▁every	-907
▁her	-908
▁including	-909
▁down	-910
▁ann	-911
▁inter	-912
▁energy	-913
▁exper	-914
ivid	-915
ety	-916
▁mod	-917
▁important	-918
▁squ	-919
▁Pl	-920
▁tiss	-921
▁ant	-922
▁cook	-923
▁sug	-924
▁appro	-925
▁within	-926
▁she	-927
▁On	-928
li	-929
iness	-930
ah	-931
arch	-932
▁Ex	-933
▁Cl	-934
▁right	-935
▁ser	-936
ploy	-937
▁dec	-938
lic	-939
▁Ind	-940
▁plant	-941
rop	-942
ash	-943
ply	-944
▁information	-945
ives	-946
▁period	-947
▁way	-948
▁New	-949
▁These	-950
sw	-951
orth	-952
ially	-953
ee	-954
▁anim	-955
▁–	-956
irect	-957
▁muscle	-958
io	-959
▁av	-960
▁must	-961
▁earn	-962
gram	-963
▁pur	-964
▁even	-965
ince	-966
reen	-967
▁ob	-968
ouse	-969
plic	-970
▁somet	-971
inition	-972
ption	-973
▁tax	-974
ired	-975
▁chem	-976
mon	-977
owing	-978
▁15	-979
iew	-980
tic	-981
▁rep	-982
▁cert	-983
▁had	-984
▁equ	-985
▁'	-986
ues	-987
▁own	-988
▁consid	-989
▁care	-990
▁(1	-991
ior	-992
eral	-993
▁mater	-994
▁unt	-995
▁pass	-996
▁old	-997
ton	-998
▁group	-999
ified	-1000
ata	-1001
▁bab	-1002
chn	-1003
ms	-1004
▁using	-1005
▁pot	-1006
▁being	-1007
▁top	-1008
rol	-1009
▁ben	-1010
way	-1011
▁str	-1012
▁symptoms	-1013
ames	-1014
▁lit	-1015
ury	-1016
ict	-1017
eld	-1018
chool	-1019
▁carb	-1020
▁$4	-1021
▁eg	-1022
▁Sp	-1023
▁mill	-1024
▁rate	-1025
▁side	-1026
▁bo	-1027
elf	-1028
ank	-1029
▁Sh	-1030
▁find	-1031
▁fil	-1032
glish	-1033
ital	-1034
▁ele	-1035
▁prot	-1036
▁want	-1037
ec	-1038
anc	-1039
ajor	-1040
▁material	-1041
ats	-1042
itis	-1043
▁species	-1044
▁eas	-1045
▁Ar	-1046
▁free	-1047
▁four	-1048
ved	-1049
▁until	-1050
▁ox	-1051
lor	-1052
amm	-1053
▁located	-1054
▁bus	-1055
ather	-1056
ute	-1057
▁look	-1058
ave	-1059
rap	-1060
▁life	-1061
▁last	-1062
▁stand	-1063
the	-1064
▁oil	-1065
▁place	-1066
gn	-1067
read	-1068
▁proper	-1069
ets	-1070
osed	-1071
amin	-1072
ters	-1073
▁caused	-1074
▁We	-1075
ense	-1076
▁best	-1077
▁class	-1078
▁30	-1079
▁vis	-1080
▁foot	-1081
▁list	-1082
▁cor	-1083
angu	-1084
ug	-1085
oid	-1086
▁partic	-1087
▁employ	-1088
▁those	-1089
▁total	-1090
▁plan	-1091
▁second	-1092
▁aut	-1093
▁memb	-1094
▁medic	-1095
▁struct	-1096
ward	-1097
▁red	-1098
ason	-1099
▁$5	-1100
nect	-1101
▁cle	-1102
▁meas	-1103
ulation	-1104
eng	-1105
▁dr	-1106
▁below	-1107
▁months	-1108
▁Some	-1109
xt	-1110
ving	-1111
▁cy	-1112
▁American	-1113
iving	-1114
▁move	-1115
▁square	-1116
▁size	-1117
▁price	-1118
▁disc	-1119
▁feet	-1120
▁affect	-1121
oint	-1122
und	-1123
▁press	-1124
▁know	-1125
▁major	-1126
ucle	-1127
▁sour	-1128
uro	-1129
iron	-1130
▁non	-1131
▁2.	-1132
▁ur	-1133
▁fib	-1134
▁However	-1135
▁DNA	-1136
ries	-1137
▁run	-1138
▁specific	-1139
▁imm	-1140
▁Most	-1141
▁nat	-1142
osp	-1143
▁few	-1144
ina	-1145
▁based	-1146
vern	-1147
▁don	-1148
▁vir	-1149
-1	-1150
▁English	-1151
▁At	-1152
▁baby	-1153
▁ed	-1154
▁infl	-1155
▁sing	-1156
▁plants	-1157
une	-1158
veral	-1159
▁lay	-1160
par	-1161
osis	-1162
▁another	-1163
hing	-1164
▁brain	-1165
▁ey	-1166
hip	-1167
rent	-1168
face	-1169
▁light	-1170
▁Sc	-1171
▁lower	-1172
anges	-1173
▁origin	-1174
▁chemical	-1175
20	-1176
ird	-1177
▁program	-1178
▁z	-1179
ield	-1180
▁law	-1181
ves	-1182
▁rece	-1183
ional	-1184
▁direct	-1185
imum	-1186
ctor	-1187
▁par	-1188
omen	-1189
▁company	-1190
▁Ph	-1191
▁const	-1192
▁prof	-1193
▁degrees	-1194
▁De	-1195
▁i	-1196
▁point	-1197
ounds	-1198
▁bacteria	-1199
atic	-1200
▁proble	-1201
▁mole	-1202
▁causes	-1203
▁pol	-1204
▁popular	-1205
▁acid	-1206
of	-1207
▁pa	-1208
▁lead	-1209
▁lim	-1210
▁rest	-1211
▁normal	-1212
▁infection	-1213
ode	-1214
etic	-1215
ination	-1216
ients	-1217
▁family	-1218
▁could	-1219
▁weeks	-1220
ency	-1221
▁es	-1222
▁gu	-1223
swer	-1224
▁depending	-1225
ivers	-1226
ring	-1227
ross	-1228
▁cap	-1229
less	-1230
nce	-1231
ration	-1232
▁mark	-1233
▁play	-1234
▁addition	-1235
con	-1236
▁US	-1237
ived	-1238
ining	-1239
__	-1240
▁Z	-1241
day	-1242
▁cr	-1243
▁report	-1244
▁human	-1245
▁sw	-1246
▁appe	-1247
crib	-1248
▁hand	-1249
ier	-1250
to	-1251
▁leg	-1252
oph	-1253
gin	-1254
▁langu	-1255
▁subst	-1256
me	-1257
▁least	-1258
▁school	-1259
▁several	-1260
▁phys	-1261
▁tissue	-1262
ither	-1263
▁business	-1264
5.	-1265
ilar	-1266
▁prim	-1267
lands	-1268
▁nut	-1269
osition	-1270
ains	-1271
atory	-1272
▁mar	-1273
▁associ	-1274
▁vol	-1275
que	-1276
▁protein	-1277
▁ev	-1278
▁Can	-1279
iven	-1280
▁head	-1281
▁flu	-1282
ories	-1283
ublic	-1284
▁Ap	-1285
yp	-1286
▁color	-1287
▁cour	-1288
ality	-1289
▁men	-1290
▁foods	-1291
▁without	-1292
▁degree	-1293
▁techn	-1294
▁become	-1295
▁[	-1296
▁Le	-1297
▁bro	-1298
▁connect	-1299
▁Med	-1300
▁build	-1301
erve	-1302
▁spe	-1303
▁typically	-1304
cle	-1305
▁lo	-1306
▁white	-1307
,5	-1308
▁50	-1309
ney	-1310
▁require	-1311
▁account	-1312
ctions	-1313
▁character	-1314
▁Ear	-1315
▁weight	-1316
iver	-1317
▁fin	-1318
▁keep	-1319
▁dog	-1320
▁open	-1321
ydro	-1322
▁avail	-1323
▁bi	-1324
▁heat	-1325
ner	-1326
inc	-1327
▁above	-1328
ae	-1329
▁100	-1330
ygen	-1331
▁sugar	-1332
▁higher	-1333
▁benef	-1334
▁great	-1335
▁Is	-1336
de	-1337
▁rad	-1338
▁contin	-1339
though	-1340
▁comb	-1341
▁react	-1342
ule	-1343
▁surface	-1344
▁design	-1345
▁experience	-1346
▁el	-1347
▁All	-1348
▁Cal	-1349
▁tend	-1350
▁Q	-1351
▁perform	-1352
az	-1353
▁redu	-1354
▁power	-1355
▁lab	-1356
▁poss	-1357
co	-1358
▁land	-1359
▁fore	-1360
ret	-1361
▁$6	-1362
min	-1363
omes	-1364
▁due	-1365
redit	-1366
▁data	-1367
▁hist	-1368
eds	-1369
▁Me	-1370
mit	-1371
▁individ	-1372
▁refer	-1373
▁annual	-1374
erc	-1375
--	-1376
▁post	-1377
▁medical	-1378
ental	-1379
▁Ab	-1380
sy	-1381
▁nucle	-1382
▁near	-1383
ization	-1384
▁full	-1385
▁treatment	-1386
▁though	-1387
▁live	-1388
▁certain	-1389
2.	-1390
au	-1391
▁16	-1392
▁special	-1393
▁Or	-1394
tain	-1395
▁Acc	-1396
ared	-1397
▁ste	-1398
▁now	-1399
▁ris	-1400
ential	-1401
▁mat	-1402
▁single	-1403
▁million	-1404
alf	-1405
▁again	-1406
▁install	-1407
▁available	-1408
▁commonly	-1409
▁short	-1410
▁dig	-1411
ables	-1412
▁wide	-1413
▁pressure	-1414
▁products	-1415
aves	-1416
uter	-1417
1,	-1418
▁But	-1419
▁invol	-1420
▁Bl	-1421
▁complete	-1422
▁levels	-1423
▁vary	-1424
▁dam	-1425
▁hard	-1426
▁either	-1427
ott	-1428
urs	-1429
▁vit	-1430
▁store	-1431
▁And	-1432
▁similar	-1433
▁control	-1434
ote	-1435
oney	-1436
▁Sal	-1437
itive	-1438
▁order	-1439
▁govern	-1440
▁generally	-1441
▁mix	-1442
ots	-1443
line	-1444
▁intern	-1445
hern	-1446
fer	-1447
▁week	-1448
▁activ	-1449
▁dru	-1450
▁rele	-1451
▁17	-1452
▁change	-1453
man	-1454
▁horm	-1455
▁given	-1456
▁contains	-1457
▁protect	-1458
▁14	-1459
▁current	-1460
ams	-1461
imately	-1462
aste	-1463
order	-1464
raph	-1465
▁imp	-1466
atin	-1467
2,	-1468
▁Car	-1469
▁--	-1470
mend	-1471
ik	-1472
▁Col	-1473
▁&	-1474
▁read	-1475
▁cir	-1476
▁considered	-1477
-$	-1478
ges	-1479
▁largest	-1480
▁record	-1481
▁parts	-1482
eth	-1483
led	-1484
ern	-1485
1.	-1486
yro	-1487
ished	-1488
▁still	-1489
▁determ	-1490
▁.	-1491
▁card	-1492
▁ver	-1493
ples	-1494
▁turn	-1495
por	-1496
▁organism	-1497
3.	-1498
▁times	-1499
ify	-1500
▁meth	-1501
▁according	-1502
▁expect	-1503
▁del	-1504
▁forms	-1505
▁muscles	-1506
▁oxygen	-1507
▁gas	-1508
af	-1509
ways	-1510
cri	-1511
▁natural	-1512
▁Rep	-1513
▁sometimes	-1514
▁measure	-1515
▁abs	-1516
▁too	-1517
▁One	-1518
ength	-1519
▁meat	-1520
▁With	-1521
3,	-1522
▁approx	-1523
▁$7	-1524
0,	-1525
▁Your	-1526
▁following	-1527
icken	-1528
ances	-1529
▁fre	-1530
hest	-1531
▁general	-1532
▁areas	-1533
▁children	-1534
uss	-1535
▁conditions	-1536
urance	-1537
urope	-1538
▁present	-1539
▁mult	-1540
ability	-1541
amp	-1542
lo	-1543
br	-1544
▁might	-1545
▁standard	-1546
5,	-1547
▁cat	-1548
▁service	-1549
▁city	-1550
like	-1551
▁applic	-1552
4,	-1553
▁sit	-1554
▁little	-1555
▁carbon	-1556
ane	-1557
▁mic	-1558
oles	-1559
▁oper	-1560
▁dri	-1561
▁eat	-1562
▁along	-1563
▁Def	-1564
where	-1565
▁occurs	-1566
idd	-1567
▁early	-1568
▁Aust	-1569
rown	-1570
▁eng	-1571
▁takes	-1572
▁/	-1573
▁North	-1574
alk	-1575
▁dry	-1576
▁provide	-1577
▁fem	-1578
arn	-1579
ici	-1580
▁Be	-1581
▁miles	-1582
▁cancer	-1583
oes	-1584
agn	-1585
▁since	-1586
▁fish	-1587
▁conf	-1588
▁produced	-1589
▁hydro	-1590
▁increase	-1591
▁project	-1592
▁pri	-1593
▁country	-1594
ently	-1595
▁eggs	-1596
▁produce	-1597
▁animals	-1598
▁names	-1599
▁left	-1600
▁particular	-1601
▁dev	-1602
▁language	-1603
▁net	-1604
▁Germ	-1605
▁variety	-1606
▁So	-1607
ably	-1608
round	-1609
▁virus	-1610
rane	-1611
▁Af	-1612
▁adult	-1613
▁check	-1614
aly	-1615
▁diet	-1616
▁let	-1617
▁port	-1618
▁nerv	-1619
▁doctor	-1620
▁inches	-1621
▁describ	-1622
▁mov	-1623
▁lun	-1624
ape	-1625
▁line	-1626
▁cho	-1627
▁—	-1628
▁flow	-1629
▁South	-1630
▁structure	-1631
▁Earth	-1632
▁kid	-1633
0,000	-1634
▁five	-1635
4.	-1636
9.	-1637
ograph	-1638
▁profess	-1639
▁income	-1640
▁makes	-1641
▁poly	-1642
pecially	-1643
▁ep	-1644
ision	-1645
▁wall	-1646
▁house	-1647
aning	-1648
ese	-1649
umb	-1650
▁cut	-1651
▁toget	-1652
▁together	-1653
▁hot	-1654
▁Europe	-1655
▁3.	-1656
▁half	-1657
▁joint	-1658
▁contract	-1659
▁Gree	-1660
most	-1661
6,	-1662
work	-1663
▁ident	-1664
ene	-1665
▁pract	-1666
ino	-1667
▁repl	-1668
ification	-1669
▁definition	-1670
iation	-1671
▁provid	-1672
fact	-1673
▁40	-1674
ann	-1675
▁cult	-1676
▁beh	-1677
▁put	-1678
▁liver	-1679
▁adv	-1680
▁:	-1681
▁come	-1682
▁support	-1683
▁comes	-1684
▁nerve	-1685
epend	-1686
▁living	-1687
▁associated	-1688
yroid	-1689
▁location	-1690
pos	-1691
bol	-1692
▁der	-1693
ison	-1694
ales	-1695
▁sun	-1696
▁states	-1697
▁approximately	-1698
ocial	-1699
▁vac	-1700
▁fee	-1701
▁veget	-1702
▁women	-1703
▁writ	-1704
RA	-1705
▁mot	-1706
nd	-1707
▁break	-1708
▁25	-1709
▁indust	-1710
asm	-1711
▁wind	-1712
istics	-1713
▁app	-1714
▁mg	-1715
let	-1716
sych	-1717
▁various	-1718
▁Tr	-1719
rench	-1720
▁oven	-1721
▁Afric	-1722
ged	-1723
▁commun	-1724
ada	-1725
not	-1726
▁region	-1727
▁credit	-1728
▁Am	-1729
▁base	-1730
▁pan	-1731
▁fru	-1732
▁allow	-1733
▁field	-1734
zym	-1735
▁colle	-1736
ling	-1737
▁repres	-1738
viron	-1739
▁recom	-1740
▁show	-1741
▁cases	-1742
▁government	-1743
▁includes	-1744
▁length	-1745
sh	-1746
ering	-1747
ission	-1748
duct	-1749
ley	-1750
▁Austral	-1751
▁source	-1752
▁cold	-1753
▁dia	-1754
view	-1755
▁required	-1756
aster	-1757
pp	-1758
▁give	-1759
▁prevent	-1760
▁America	-1761
ump	-1762
▁salt	-1763
▁making	-1764
ware	-1765
▁et	-1766
00.	-1767
▁green	-1768
▁eye	-1769
irl	-1770
▁tri	-1771
▁$8	-1772
elling	-1773
▁hair	-1774
▁soft	-1775
oon	-1776
arent	-1777
▁Gen	-1778
▁especially	-1779
▁median	-1780
30	-1781
be	-1782
▁related	-1783
▁What	-1784
▁money	-1785
▁According	-1786
▁Definition	-1787
ches	-1788
▁method	-1789
25	-1790
▁bond	-1791
erest	-1792
ands	-1793
dom	-1794
9,	-1795
amed	-1796
▁=	-1797
▁return	-1798
▁arter	-1799
▁growth	-1800
▁recommend	-1801
▁here	-1802
▁however	-1803
▁bone	-1804
▁lic	-1805
▁appear	-1806
▁case	-1807
▁art	-1808
▁later	-1809
▁digest	-1810
▁199	-1811
cing	-1812
▁problems	-1813
oor	-1814
▁longer	-1815
iversity	-1816
▁effects	-1817
▁uses	-1818
▁salaries	-1819
ume	-1820
▁soil	-1821
▁kind	-1822
side	-1823
▁value	-1824
▁phot	-1825
▁real	-1826
▁risk	-1827
▁offic	-1828
▁er	-1829
otic	-1830
can	-1831
▁cover	-1832
▁begin	-1833
▁loss	-1834
ised	-1835
▁travel	-1836
▁cop	-1837
ills	-1838
ensive	-1839
▁11	-1840
▁Many	-1841
▁saf	-1842
irth	-1843
▁frequ	-1844
TI	-1845
▁did	-1846
arb	-1847
ai	-1848
▁Answer	-1849
▁others	-1850
fl	-1851
▁rock	-1852
▁paid	-1853
▁sure	-1854
▁position	-1855
ement	-1856
▁charge	-1857
ydr	-1858
ression	-1859
▁gre	-1860
▁lot	-1861
▁six	-1862
iddle	-1863
▁fac	-1864
▁better	-1865
roll	-1866
▁chicken	-1867
▁depends	-1868
▁24	-1869
▁Pr	-1870
ustom	-1871
▁feel	-1872
lex	-1873
▁ide	-1874
▁able	-1875
▁sens	-1876
▁environ	-1877
aken	-1878
▁animal	-1879
ateg	-1880
ER	-1881
ymph	-1882
▁opt	-1883
▁Act	-1884
cription	-1885
▁market	-1886
omy	-1887
▁calcul	-1888
▁insurance	-1889
aily	-1890
▁highest	-1891
▁separ	-1892
▁indic	-1893
6.	-1894
▁X	-1895
▁unit	-1896
▁Sy	-1897
raw	-1898
ique	-1899
▁think	-1900
val	-1901
▁rare	-1902
iger	-1903
8,	-1904
▁plac	-1905
▁Pre	-1906
▁big	-1907
8.	-1908
vere	-1909
cular	-1910
hem	-1911
ribut	-1912
▁services	-1913
▁Res	-1914
▁population	-1915
▁Cent	-1916
▁layer	-1917
▁That	-1918
▁dom	-1919
▁production	-1920
ula	-1921
▁Cont	-1922
7.	-1923
▁Pe	-1924
ological	-1925
▁factors	-1926
▁Of	-1927
▁By	-1928
▁Co	-1929
▁patients	-1930
▁local	-1931
▁study	-1932
▁mass	-1933
▁sum	-1934
▁respons	-1935
▁basic	-1936
▁expl	-1937
▁educ	-1938
ancy	-1939
▁sn	-1940
resh	-1941
▁click	-1942
ns	-1943
ush	-1944
▁enough	-1945
▁rese	-1946
▁enzym	-1947
▁individual	-1948
uk	-1949
▁things	-1950
▁history	-1951
▁engine	-1952
eter	-1953
▁Other	-1954
wh	-1955
ellow	-1956
▁May	-1957
▁Comp	-1958
▁tradition	-1959
▁milk	-1960
ems	-1961
▁While	-1962
▁black	-1963
▁disorder	-1964
▁diseases	-1965
▁formed	-1966
uck	-1967
▁interest	-1968
▁public	-1969
stand	-1970
aim	-1971
60	-1972
▁From	-1973
▁Mar	-1974
▁fall	-1975
cules	-1976
▁infections	-1977
iate	-1978
▁pregn	-1979
▁Ass	-1980
▁close	-1981
ember	-1982
▁vess	-1983
▁inj	-1984
cre	-1985
▁done	-1986
,000.	-1987
▁having	-1988
▁Cost	-1989
▁0.	-1990
▁gluc	-1991
▁step	-1992
▁ess	-1993
▁Greek	-1994
cean	-1995
cks	-1996
ument	-1997
▁against	-1998
▁max	-1999
▁pric	-2000
ires	-2001
7,	-2002
osph	-2003
time	-2004
▁stom	-2005
ache	-2006
▁strong	-2007
▁belie	-2008
otes	-2009
▁(2	-2010
40	-2011
avor	-2012
amb	-2013
▁hold	-2014
▁inflamm	-2015
▁daily	-2016
rapy	-2017
▁always	-2018
▁simple	-2019
▁born	-2020
ores	-2021
atch	-2022
10	-2023
▁something	-2024
▁past	-2025
▁pack	-2026
▁possible	-2027
ipp	-2028
ohol	-2029
yt	-2030
aut	-2031
▁ge	-2032
bre	-2033
iforn	-2034
▁Im	-2035
opl	-2036
eding	-2037
▁benefits	-2038
▁computer	-2039
cohol	-2040
▁60	-2041
▁ground	-2042
▁Te	-2043
idence	-2044
▁symbol	-2045
▁results	-2046
ufact	-2047
▁Man	-2048
▁provides	-2049
▁needs	-2050
rist	-2051
ails	-2052
▁tree	-2053
▁vers	-2054
▁inside	-2055
rag	-2056
▁prob	-2057
▁feature	-2058
▁spread	-2059
ilt	-2060
cium	-2061
ffic	-2062
▁liqu	-2063
▁After	-2064
80	-2065
oman	-2066
▁whole	-2067
▁countries	-2068
▁changes	-2069
▁bar	-2070
ifornia	-2071
▁referred	-2072
▁anywhere	-2073
▁away	-2074
▁defined	-2075
▁among	-2076
▁primary	-2077
▁materials	-2078
▁1/	-2079
▁Em	-2080
▁season	-2081
▁damage	-2082
▁table	-2083
▁stat	-2084
▁stomach	-2085
▁actually	-2086
▁ill	-2087
▁electric	-2088
rid	-2089
ien	-2090
▁hy	-2091
ured	-2092
▁psych	-2093
ips	-2094
▁complex	-2095
▁French	-2096
▁urine	-2097
▁contact	-2098
▁environment	-2099
▁physical	-2100
▁leaves	-2101
▁tru	-2102
arily	-2103
▁useful	-2104
▁buy	-2105
▁working	-2106
inary	-2107
iting	-2108
ronic	-2109
▁said	-2110
▁intest	-2111
▁remov	-2112
▁refers	-2113
▁minimum	-2114
yle	-2115
▁iss	-2116
agement	-2117
▁bill	-2118
▁file	-2119
gery	-2120
▁molecules	-2121
▁Wor	-2122
▁membrane	-2123
▁roast	-2124
ites	-2125
▁century	-2126
▁systems	-2127
ogn	-2128
▁Gr	-2129
▁terms	-2130
▁proteins	-2131
▁girl	-2132
ederal	-2133
ends	-2134
▁Go	-2135
.,	-2136
▁vitamin	-2137
▁object	-2138
▁sea	-2139
▁members	-2140
▁once	-2141
▁swe	-2142
▁central	-2143
▁Inst	-2144
▁conver	-2145
▁electr	-2146
▁national	-2147
arr	-2148
ON	-2149
▁x	-2150
▁anc	-2151
▁words	-2152
▁space	-2153
▁rib	-2154
▁My	-2155
▁Ge	-2156
▁consum	-2157
▁room	-2158
▁birth	-2159
▁Fl	-2160
,500	-2161
▁custom	-2162
▁say	-2163
▁throughout	-2164
▁California	-2165
astic	-2166
▁next	-2167
▁code	-2168
▁happ	-2169
▁purch	-2170
▁youn	-2171
▁earth	-2172
▁development	-2173
▁Intern	-2174
▁+	-2175
▁lymph	-2176
▁healthy	-2177
by	-2178
▁fluid	-2179
▁earned	-2180
▁Brit	-2181
▁ago	-2182
▁tub	-2183
▁absor	-2184
ze	-2185
▁Us	-2186
ension	-2187
▁helps	-2188
gans	-2189
▁upper	-2190
▁try	-2191
▁fees	-2192
▁Best	-2193
for	-2194
▁medium	-2195
ruction	-2196
▁organisms	-2197
▁calories	-2198
hel	-2199
ww	-2200
▁Although	-2201
▁south	-2202
▁book	-2203
▁quest	-2204
▁movement	-2205
ana	-2206
▁key	-2207
▁deep	-2208
▁path	-2209
▁etc	-2210
▁humans	-2211
ules	-2212
▁labor	-2213
▁north	-2214
ding	-2215
▁thick	-2216
omic	-2217
▁km	-2218
▁course	-2219
rodu	-2220
▁likely	-2221
▁typical	-2222
▁13	-2223
▁site	-2224
▁role	-2225
▁Per	-2226
ream	-2227
▁works	-2228
▁egg	-2229
▁quick	-2230
▁manufact	-2231
▁0	-2232
▁,	-2233
▁dem	-2234
▁going	-2235
▁almost	-2236
▁pie	-2237
▁vacc	-2238
▁hem	-2239
▁whether	-2240
▁Latin	-2241
▁See	-2242
ogen	-2243
key	-2244
▁larger	-2245
IN	-2246
▁quality	-2247
▁magn	-2248
▁exc	-2249
rome	-2250
▁tur	-2251
estern	-2252
▁additional	-2253
rict	-2254
▁signific	-2255
▁hormone	-2256
▁clear	-2257
▁antib	-2258
▁div	-2259
▁difference	-2260
na	-2261
ery	-2262
▁Fe	-2263
▁drug	-2264
▁estim	-2265
▁regular	-2266
▁impro	-2267
▁glucose	-2268
▁Dis	-2269
▁apply	-2270
urity	-2271
▁gland	-2272
abl	-2273
▁Canada	-2274
oma	-2275
▁necess	-2276
uses	-2277
ively	-2278
▁nutri	-2279
▁organs	-2280
▁receive	-2281
▁ir	-2282
hic	-2283
▁follow	-2284
minist	-2285
▁consists	-2286
ude	-2287
▁bal	-2288
▁across	-2289
▁Here	-2290
gi	-2291
▁Gu	-2292
▁learn	-2293
▁warm	-2294
ohydr	-2295
osphere	-2296
▁compon	-2297
▁Ro	-2298
aches	-2299
▁assist	-2300
fect	-2301
▁cool	-2302
▁mount	-2303
▁cup	-2304
▁sil	-2305
▁cooking	-2306
▁relative	-2307
▁consist	-2308
▁Australia	-2309
etes	-2310
tt	-2311
chan	-2312
mber	-2313
▁represent	-2314
ormally	-2315
▁why	-2316
ead	-2317
▁select	-2318
▁severe	-2319
▁doc	-2320
▁date	-2321
▁respir	-2322
▁Each	-2323
▁Des	-2324
▁itself	-2325
▁sex	-2326
▁alcohol	-2327
ius	-2328
ulf	-2329
▁ing	-2330
▁Joh	-2331
alt	-2332
▁create	-2333
abol	-2334
hor	-2335
▁tissues	-2336
▁gene	-2337
ritis	-2338
▁won	-2339
▁fiber	-2340
▁chrom	-2341
ront	-2342
▁view	-2343
uct	-2344
▁access	-2345
▁page	-2346
ops	-2347
▁bat	-2348
ival	-2349
reme	-2350
thing	-2351
▁needed	-2352
vious	-2353
▁building	-2354
▁students	-2355
ils	-2356
▁genetic	-2357
▁Do	-2358
▁parent	-2359
▁claim	-2360
▁height	-2361
asing	-2362
▁mouth	-2363
▁taken	-2364
▁Eng	-2365
▁carry	-2366
ler	-2367
ma	-2368
▁acids	-2369
ili	-2370
▁text	-2371
▁fig	-2372
____	-2373
▁research	-2374
▁Mon	-2375
....	-2376
▁diagn	-2377
▁property	-2378
▁wood	-2379
itution	-2380
▁iron	-2381
▁Sec	-2382
ica	-2383
▁York	-2384
ried	-2385
▁death	-2386
▁center	-2387
▁derived	-2388
iple	-2389
▁Add	-2390
▁mo	-2391
▁extra	-2392
istic	-2393
▁female	-2394
ask	-2395
▁4.	-2396
nthes	-2397
▁cannot	-2398
▁bott	-2399
▁fresh	-2400
▁exist	-2401
▁Also	-2402
▁World	-2403
▁proced	-2404
ike	-2405
odes	-2406
ightly	-2407
ended	-2408
▁seeds	-2409
▁temperatures	-2410
▁ranges	-2411
▁thyroid	-2412
▁far	-2413
▁maximum	-2414
▁social	-2415
▁University	-2416
▁brown	-2417
ached	-2418
erence	-2419
▁National	-2420
▁surgery	-2421
▁rain	-2422
▁industry	-2423
▁immune	-2424
▁smaller	-2425
▁reaction	-2426
▁training	-2427
▁Average	-2428
▁invest	-2429
iter	-2430
▁vessels	-2431
▁nervous	-2432
erals	-2433
uff	-2434
▁1,	-2435
▁win	-2436
▁Pres	-2437
▁significant	-2438
▁education	-2439
uel	-2440
▁Meaning	-2441
ift	-2442
▁problem	-2443
▁fast	-2444
▁wage	-2445
ris	-2446
bl	-2447
▁kil	-2448
ician	-2449
▁appl	-2450
▁link	-2451
reg	-2452
oxide	-2453
▁liquid	-2454
▁inflammation	-2455
▁entire	-2456
▁calcium	-2457
icult	-2458
▁bran	-2459
▁pen	-2460
▁created	-2461
▁pow	-2462
▁reach	-2463
orders	-2464
▁divid	-2465
▁Africa	-2466
▁directly	-2467
orthern	-2468
▁Count	-2469
odium	-2470
artment	-2471
illed	-2472
75	-2473
▁noun	-2474
▁remove	-2475
ico	-2476
ray	-2477
ians	-2478
ending	-2479
▁someone	-2480
70	-2481
eg	-2482
oard	-2483
ysis	-2484
▁today	-2485
▁succ	-2486
▁State	-2487
▁him	-2488
▁groups	-2489
▁elements	-2490
▁functions	-2491
ention	-2492
aps	-2493
▁easy	-2494
▁ju	-2495
▁taking	-2496
▁remain	-2497
vate	-2498
▁doesn	-2499
▁seen	-2500
▁colon	-2501
icy	-2502
▁Ed	-2503
▁really	-2504
▁artic	-2505
▁lungs	-2506
anies	-2507
ida	-2508
▁third	-2509
▁micro	-2510
▁Air	-2511
▁consider	-2512
ored	-2513
▁tell	-2514
▁vehic	-2515
▁yellow	-2516
▁First	-2517
terol	-2518
▁reason	-2519
outhern	-2520
▁creat	-2521
apan	-2522
ouble	-2523
med	-2524
▁corn	-2525
▁rates	-2526
▁Tex	-2527
▁collect	-2528
bers	-2529
▁prom	-2530
▁War	-2531
▁No	-2532
▁reduce	-2533
ball	-2534
▁establ	-2535
▁replace	-2536
▁pred	-2537
▁outside	-2538
SA	-2539
▁Reg	-2540
aged	-2541
▁answer	-2542
▁Tra	-2543
▁drink	-2544
ights	-2545
iction	-2546
▁qual	-2547
ancial	-2548
▁sources	-2549
pose	-2550
▁ingred	-2551
▁kidney	-2552
▁concent	-2553
▁transport	-2554
▁German	-2555
olesterol	-2556
▁male	-2557
riger	-2558
▁Mex	-2559
▁activity	-2560
rel	-2561
▁internal	-2562
▁added	-2563
▁init	-2564
▁wa	-2565
▁application	-2566
▁inh	-2567
▁regul	-2568
▁Qu	-2569
▁although	-2570
▁Gl	-2571
thritis	-2572
▁burn	-2573
erior	-2574
▁prices	-2575
▁composed	-2576
rm	-2577
▁cycle	-2578
▁breat	-2579
cule	-2580
aur	-2581
ties	-2582
▁influ	-2583
▁198	-2584
▁Old	-2585
odies	-2586
▁gall	-2587
aring	-2588
▁Click	-2589
pan	-2590
▁named	-2591
ators	-2592
usion	-2593
▁bit	-2594
▁adults	-2595
▁determine	-2596
▁coun	-2597
▁dest	-2598
itor	-2599
over	-2600
▁econ	-2601
▁India	-2602
▁ways	-2603
▁$9	-2604
▁£	-2605
▁town	-2606
▁cere	-2607
▁metal	-2608
▁dose	-2609
▁serious	-2610
ndrome	-2611
▁Par	-2612
ister	-2613
rab	-2614
itary	-2615
upt	-2616
inct	-2617
char	-2618
rine	-2619
ching	-2620
▁sat	-2621
ource	-2622
hers	-2623
▁$50	-2624
▁probably	-2625
▁‘	-2626
▁doll	-2627
att	-2628
uce	-2629
▁original	-2630
▁simply	-2631
ST	-2632
▁allows	-2633
▁understand	-2634
▁series	-2635
▁More	-2636
The	-2637
apt	-2638
▁Over	-2639
▁nurs	-2640
ees	-2641
▁anti	-2642
▁carbohydr	-2643
crete	-2644
▁bow	-2645
lease	-2646
▁trees	-2647
sc	-2648
▁medicine	-2649
▁adj	-2650
▁blue	-2651
▁drive	-2652
bit	-2653
urse	-2654
▁element	-2655
ologist	-2656
▁bird	-2657
▁offer	-2658
▁King	-2659
▁easily	-2660
▁success	-2661
▁hor	-2662
▁tract	-2663
▁transfer	-2664
▁attack	-2665
ril	-2666
▁90	-2667
ivil	-2668
▁smo	-2669
▁safe	-2670
ribution	-2671
▁neg	-2672
rect	-2673
sp	-2674
roph	-2675
▁middle	-2676
ster	-2677
rance	-2678
▁Rem	-2679
▁pep	-2680
▁plate	-2681
▁war	-2682
ung	-2683
▁sem	-2684
▁stay	-2685
▁essential	-2686
▁fur	-2687
▁responsible	-2688
ilities	-2689
▁tu	-2690
▁Indian	-2691
▁molecule	-2692
self	-2693
▁Japan	-2694
▁minerals	-2695
uals	-2696
sel	-2697
pat	-2698
▁Lab	-2699
ped	-2700
▁boil	-2701
▁substance	-2702
abetes	-2703
▁Salary	-2704
▁Place	-2705
erous	-2706
ew	-2707
▁Bec	-2708
▁ter	-2709
▁difficult	-2710
▁neur	-2711
▁behav	-2712
ella	-2713
▁prep	-2714
▁vegetables	-2715
▁Sw	-2716
ards	-2717
▁tit	-2718
▁became	-2719
▁personal	-2720
▁fruit	-2721
▁Ac	-2722
▁Ant	-2723
▁thin	-2724
▁bones	-2725
▁companies	-2726
▁clean	-2727
ope	-2728
▁floor	-2729
▁pounds	-2730
▁RNA	-2731
fort	-2732
PA	-2733
▁tests	-2734
▁slow	-2735
▁Trans	-2736
▁jobs	-2737
▁maintain	-2738
▁ded	-2739
year	-2740
▁shows	-2741
▁dark	-2742
umin	-2743
▁cholesterol	-2744
].	-2745
▁hyp	-2746
▁grams	-2747
▁21	-2748
room	-2749
anging	-2750
▁varies	-2751
▁starting	-2752
▁increased	-2753
▁phosph	-2754
▁situ	-2755
▁subject	-2756
▁weather	-2757
▁glands	-2758
▁Ju	-2759
▁network	-2760
▁developed	-2761
leep	-2762
iment	-2763
▁Report	-2764
ping	-2765
▁Che	-2766
ipe	-2767
▁anal	-2768
▁Use	-2769
▁active	-2770
oe	-2771
▁ask	-2772
▁coast	-2773
▁mess	-2774
▁webs	-2775
imal	-2776
ste	-2777
name	-2778
▁pet	-2779
olar	-2780
▁choose	-2781
▁professional	-2782
nam	-2783
▁ability	-2784
anged	-2785
tr	-2786
▁drugs	-2787
enn	-2788
▁chromos	-2789
):	-2790
▁stim	-2791
▁device	-2792
▁built	-2793
▁traditional	-2794
▁sent	-2795
▁$100	-2796
▁mechan	-2797
EN	-2798
▁butter	-2799
▁office	-2800
▁coll	-2801
▁invent	-2802
-2	-2803
enses	-2804
▁City	-2805
▁dogs	-2806
▁gradu	-2807
▁Sup	-2808
ender	-2809
▁speed	-2810
▁management	-2811
iet	-2812
▁event	-2813
oly	-2814
isc	-2815
5%	-2816
▁Min	-2817
▁song	-2818
▁late	-2819
▁exerc	-2820
▁bottom	-2821
▁cou	-2822
▁online	-2823
▁patient	-2824
▁nutrients	-2825
rad	-2826
▁heav	-2827
▁Its	-2828
adder	-2829
▁block	-2830
▁Ke	-2831
go	-2832
vey	-2833
▁Jan	-2834
AT	-2835
▁rat	-2836
▁refriger	-2837
▁vent	-2838
AN	-2839
▁volcan	-2840
▁therapy	-2841
▁metabol	-2842
12	-2843
abit	-2844
▁bank	-2845
ads	-2846
▁shape	-2847
▁scient	-2848
▁injury	-2849
▁vide	-2850
mission	-2851
ture	-2852
uary	-2853
▁tool	-2854
rition	-2855
che	-2856
▁Oct	-2857
▁196	-2858
▁cav	-2859
15	-2860
wards	-2861
▁amounts	-2862
ening	-2863
onse	-2864
▁written	-2865
ager	-2866
▁suggest	-2867
vered	-2868
▁widely	-2869
▁fever	-2870
▁rather	-2871
acy	-2872
90	-2873
▁necessary	-2874
AR	-2875
▁enter	-2876
▁island	-2877
▁surround	-2878
▁chlor	-2879
▁regist	-2880
▁80	-2881
▁upon	-2882
rial	-2883
▁Texas	-2884
▁decre	-2885
▁gar	-2886
imm	-2887
▁limit	-2888
raft	-2889
▁Serv	-2890
iam	-2891
state	-2892
ief	-2893
aff	-2894
▁Because	-2895
▁matter	-2896
▁young	-2897
izes	-2898
▁pul	-2899
▁address	-2900
amins	-2901
anish	-2902
▁gold	-2903
▁recogn	-2904
▁syndrome	-2905
▁clos	-2906
▁accept	-2907
▁unique	-2908
▁foc	-2909
▁requires	-2910
▁box	-2911
▁never	-2912
▁night	-2913
▁tre	-2914
iciency	-2915
▁brand	-2916
▁pregnancy	-2917
▁cooked	-2918
▁reported	-2919
▁tall	-2920
▁solution	-2921
ille	-2922
▁star	-2923
verse	-2924
▁fix	-2925
rum	-2926
ounced	-2927
ulin	-2928
▁Inc	-2929
▁spinal	-2930
▁except	-2931
▁normally	-2932
▁prec	-2933
▁categ	-2934
▁recept	-2935
▁therm	-2936
▁front	-2937
▁IRA	-2938
▁hosp	-2939
▁Since	-2940
ued	-2941
▁circ	-2942
aging	-2943
▁thing	-2944
rate	-2945
▁pron	-2946
irm	-2947
och	-2948
▁neck	-2949
▁She	-2950
▁root	-2951
▁Wind	-2952
used	-2953
-3	-2954
▁Cor	-2955
▁programs	-2956
osy	-2957
rogen	-2958
change	-2959
▁excess	-2960
gy	-2961
▁Cong	-2962
▁mid	-2963
▁covered	-2964
▁bra	-2965
▁modern	-2966
▁Sym	-2967
▁legal	-2968
▁Tw	-2969
▁growing	-2970
▁fri	-2971
▁processes	-2972
▁medication	-2973
▁paper	-2974
▁hourly	-2975
▁expensive	-2976
▁action	-2977
sts	-2978
▁motor	-2979
wood	-2980
▁Food	-2981
▁eyes	-2982
▁extreme	-2983
reng	-2984
orph	-2985
▁mel	-2986
ched	-2987
▁atm	-2988
▁People	-2989
bed	-2990
▁expected	-2991
▁seed	-2992
▁Mus	-2993
plement	-2994
aling	-2995
▁separate	-2996
▁cord	-2997
▁dioxide	-2998
▁older	-2999
▁requirements	-3000
▁rot	-3001
▁response	-3002
urally	-3003
IC	-3004
▁sound	-3005
▁capital	-3006
▁Once	-3007
▁grass	-3008
▁sold	-3009
▁content	-3010
▁gives	-3011
▁college	-3012
▁nation	-3013
▁meet	-3014
▁amino	-3015
▁effective	-3016
met	-3017
▁hormones	-3018
raction	-3019
▁disorders	-3020
▁substances	-3021
▁obtain	-3022
olution	-3023
▁released	-3024
▁bag	-3025
▁arch	-3026
▁rough	-3027
aving	-3028
▁altern	-3029
▁beans	-3030
▁cit	-3031
▁designed	-3032
wide	-3033
▁federal	-3034
▁John	-3035
▁bound	-3036
▁mineral	-3037
itude	-3038
▁County	-3039
▁lif	-3040
▁West	-3041
▁sell	-3042
iles	-3043
▁involved	-3044
▁map	-3045
▁primarily	-3046
▁supply	-3047
▁prop	-3048
▁arm	-3049
▁mach	-3050
ony	-3051
▁potential	-3052
normal	-3053
hold	-3054
▁sand	-3055
▁bad	-3056
▁During	-3057
ober	-3058
ample	-3059
▁Asia	-3060
▁clin	-3061
▁member	-3062
▁tox	-3063
▁visit	-3064
ready	-3065
▁author	-3066
▁slightly	-3067
▁rich	-3068
ocyt	-3069
▁stop	-3070
nthesis	-3071
▁wr	-3072
▁nit	-3073
▁recommended	-3074
▁Conf	-3075
ds	-3076
▁highly	-3077
put	-3078
ryst	-3079
atoes	-3080
▁River	-3081
▁phone	-3082
▁Mount	-3083
▁divided	-3084
▁Dep	-3085
▁financial	-3086
▁Part	-3087
ubl	-3088
▁music	-3089
aped	-3090
▁solid	-3091
occ	-3092
▁mut	-3093
▁System	-3094
▁British	-3095
▁getting	-3096
▁sweet	-3097
▁combination	-3098
hetic	-3099
▁estimate	-3100
▁section	-3101
▁liter	-3102
▁China	-3103
ament	-3104
▁ever	-3105
▁host	-3106
▁stri	-3107
▁exact	-3108
▁flat	-3109
▁illness	-3110
aid	-3111
▁rocks	-3112
▁Char	-3113
▁website	-3114
5,000	-3115
▁share	-3116
iac	-3117
▁listed	-3118
▁Health	-3119
ont	-3120
▁Vir	-3121
▁ov	-3122
▁practice	-3123
▁harm	-3124
▁organic	-3125
▁score	-3126
▁private	-3127
▁nucleus	-3128
▁already	-3129
▁ancient	-3130
▁units	-3131
ecut	-3132
gal	-3133
▁Our	-3134
nown	-3135
ivity	-3136
▁70	-3137
▁compared	-3138
▁equal	-3139
▁produces	-3140
▁Int	-3141
ging	-3142
▁eth	-3143
also	-3144
load	-3145
▁Sm	-3146
▁detect	-3147
▁stimul	-3148
gra	-3149
▁relations	-3150
▁bul	-3151
▁feed	-3152
▁sleep	-3153
▁pair	-3154
▁197	-3155
▁(3	-3156
▁tum	-3157
▁diabetes	-3158
ta	-3159
sol	-3160
//	-3161
▁improve	-3162
▁beg	-3163
▁High	-3164
zer	-3165
onic	-3166
▁true	-3167
▁introdu	-3168
▁Geor	-3169
neys	-3170
▁properties	-3171
kele	-3172
▁face	-3173
▁Island	-3174
uble	-3175
▁independ	-3176
▁mainly	-3177
▁installation	-3178
----	-3179
://	-3180
oster	-3181
▁pork	-3182
▁July	-3183
▁commerc	-3184
▁concrete	-3185
▁lip	-3186
gress	-3187
▁option	-3188
iny	-3189
▁Red	-3190
▁leave	-3191
▁eating	-3192
▁taste	-3193
▁wild	-3194
▁bring	-3195
▁President	-3196
▁5.	-3197
▁screen	-3198
▁Step	-3199
ype	-3200
▁flavor	-3201
▁version	-3202
▁official	-3203
iat	-3204
oup	-3205
▁mixture	-3206
unction	-3207
▁ten	-3208
ibility	-3209
▁beaut	-3210
▁steak	-3211
▁multiple	-3212
▁vehicle	-3213
▁Stat	-3214
▁resid	-3215
▁quite	-3216
▁distance	-3217
ography	-3218
▁document	-3219
▁individuals	-3220
▁worth	-3221
▁streng	-3222
▁administ	-3223
ken	-3224
▁aff	-3225
▁structures	-3226
▁increases	-3227
▁diam	-3228
anced	-3229
▁moist	-3230
▁mother	-3231
▁sense	-3232
▁basis	-3233
based	-3234
▁records	-3235
emb	-3236
▁El	-3237
▁Not	-3238
▁electrical	-3239
▁repair	-3240
▁portion	-3241
▁model	-3242
▁question	-3243
▁belong	-3244
▁Christ	-3245
▁double	-3246
▁cheese	-3247
▁compounds	-3248
▁Mic	-3249
▁quickly	-3250
OR	-3251
▁Bel	-3252
▁culture	-3253
▁says	-3254
arc	-3255
▁numbers	-3256
▁($	-3257
▁Fran	-3258
▁Sim	-3259
cies	-3260
roat	-3261
▁trop	-3262
▁looking	-3263
▁San	-3264
▁lat	-3265
▁vitamins	-3266
▁bud	-3267
▁$10	-3268
edia	-3269
ising	-3270
▁features	-3271
▁greater	-3272
▁Aug	-3273
▁affects	-3274
ria	-3275
▁article	-3276
▁ce	-3277
pid	-3278
▁regard	-3279
▁included	-3280
▁Medic	-3281
▁pos	-3282
▁lowest	-3283
▁mostly	-3284
▁search	-3285
gar	-3286
▁displ	-3287
book	-3288
▁beef	-3289
rated	-3290
▁Top	-3291
▁Sur	-3292
▁mind	-3293
▁native	-3294
▁fert	-3295
▁sauce	-3296
'.	-3297
99	-3298
uous	-3299
▁ocean	-3300
▁dy	-3301
amine	-3302
▁rent	-3303
▁Const	-3304
▁offers	-3305
erate	-3306
▁October	-3307
achelor	-3308
▁fail	-3309
▁shown	-3310
▁fro	-3311
ologists	-3312
▁2014	-3313
▁instead	-3314
inate	-3315
▁compound	-3316
▁1/2	-3317
asc	-3318
▁deb	-3319
▁provided	-3320
▁pound	-3321
▁ft	-3322
oplasm	-3323
asons	-3324
▁enc	-3325
ES	-3326
cop	-3327
▁Typ	-3328
▁regions	-3329
▁procedure	-3330
▁arr	-3331
rency	-3332
▁estimated	-3333
▁thought	-3334
▁$1,	-3335
▁intestine	-3336
light	-3337
▁April	-3338
ato	-3339
▁jo	-3340
▁January	-3341
▁fire	-3342
▁purpose	-3343
anks	-3344
▁accom	-3345
▁pattern	-3346
▁began	-3347
▁fuel	-3348
▁nature	-3349
▁tick	-3350
aces	-3351
▁htt	-3352
ama	-3353
▁mal	-3354
▁hydrogen	-3355
▁sales	-3356
▁obs	-3357
▁enzyme	-3358
▁via	-3359
▁resist	-3360
ses	-3361
▁kit	-3362
▁flower	-3363
▁Ins	-3364
overed	-3365
▁England	-3366
nces	-3367
▁2015	-3368
▁Flor	-3369
OT	-3370
▁mamm	-3371
▁walk	-3372
▁About	-3373
▁stra	-3374
▁chronic	-3375
▁completely	-3376
▁limited	-3377
▁glass	-3378
▁fit	-3379
▁avoid	-3380
▁broad	-3381
▁panc	-3382
▁breast	-3383
▁organization	-3384
oses	-3385
DA	-3386
ensity	-3387
▁stone	-3388
▁release	-3389
▁causing	-3390
▁mild	-3391
▁ens	-3392
▁cm	-3393
▁game	-3394
▁smooth	-3395
▁behavior	-3396
ares	-3397
▁Mexico	-3398
▁fol	-3399
▁dire	-3400
▁previous	-3401
pr	-3402
fficient	-3403
▁rh	-3404
▁ang	-3405
▁pit	-3406
▁repro	-3407
oil	-3408
inks	-3409
▁eff	-3410
▁teeth	-3411
▁digestive	-3412
itation	-3413
mitted	-3414
▁force	-3415
▁princ	-3416
▁Associ	-3417
ocks	-3418
ider	-3419
▁Russ	-3420
AC	-3421
▁East	-3422
▁45	-3423
▁video	-3424
▁sequ	-3425
▁majority	-3426
▁film	-3427
▁characterized	-3428
▁Dr	-3429
▁Spanish	-3430
▁came	-3431
▁Ag	-3432
▁crit	-3433
head	-3434
▁nerves	-3435
▁Germany	-3436
▁software	-3437
▁love	-3438
▁naturally	-3439
▁conduct	-3440
nal	-3441
onal	-3442
▁gain	-3443
inant	-3444
▁minute	-3445
ises	-3446
▁Val	-3447
▁plus	-3448
▁cyt	-3449
▁stored	-3450
▁prem	-3451
▁cort	-3452
▁balance	-3453
▁tender	-3454
ava	-3455
RI	-3456
▁Will	-3457
▁employee	-3458
▁employees	-3459
▁occup	-3460
▁sed	-3461
▁points	-3462
▁sodium	-3463
▁distinct	-3464
cel	-3465
▁°	-3466
▁round	-3467
▁containing	-3468
▁atoms	-3469
▁further	-3470
oo	-3471
▁ol	-3472
ington	-3473
▁summer	-3474
▁cross	-3475
▁pepper	-3476
▁abnormal	-3477
iol	-3478
▁drop	-3479
▁ult	-3480
orage	-3481
▁tar	-3482
alian	-3483
▁signs	-3484
▁weak	-3485
▁climate	-3486
▁lack	-3487
emia	-3488
▁correct	-3489
▁Labor	-3490
▁dish	-3491
assium	-3492
▁nearly	-3493
▁flowers	-3494
tery	-3495
▁autom	-3496
sect	-3497
▁goes	-3498
▁vaccine	-3499
▁career	-3500
rier	-3501
▁community	-3502
▁June	-3503
▁factor	-3504
▁depos	-3505
▁license	-3506
▁respect	-3507
▁colors	-3508
▁Congress	-3509
ipment	-3510
▁exercise	-3511
200	-3512
izing	-3513
den	-3514
▁bur	-3515
▁aver	-3516
water	-3517
oz	-3518
term	-3519
▁Br	-3520
▁self	-3521
▁Florida	-3522
▁languages	-3523
▁crust	-3524
▁communic	-3525
▁bacterial	-3526
orts	-3527
pers	-3528
▁allerg	-3529
▁Pol	-3530
ground	-3531
▁science	-3532
ieve	-3533
unity	-3534
▁arteries	-3535
▁pict	-3536
▁carbohydrates	-3537
▁August	-3538
▁joints	-3539
oul	-3540
ena	-3541
▁court	-3542
▁verte	-3543
▁concept	-3544
▁volume	-3545
▁arthritis	-3546
▁negative	-3547
▁infected	-3548
▁Ir	-3549
onia	-3550
▁syn	-3551
▁Wash	-3552
active	-3553
▁Orig	-3554
▁II	-3555
▁stre	-3556
▁28	-3557
▁thous	-3558
▁Great	-3559
yr	-3560
▁surv	-3561
▁relatively	-3562
ences	-3563
▁idea	-3564
▁tuition	-3565
▁Mal	-3566
iot	-3567
▁Like	-3568
▁*	-3569
▁chain	-3570
▁Pay	-3571
▁west	-3572
▁fer	-3573
▁seven	-3574
▁circul	-3575
▁begins	-3576
▁dollars	-3577
▁places	-3578
▁secret	-3579
inger	-3580
▁stress	-3581
▁polit	-3582
▁suff	-3583
▁fibers	-3584
▁image	-3585
▁famous	-3586
▁Vit	-3587
▁Park	-3588
see	-3589
▁pool	-3590
▁applied	-3591
▁AD	-3592
▁positive	-3593
▁Tur	-3594
ault	-3595
▁transl	-3596
ened	-3597
▁Ca	-3598
▁35	-3599
▁agent	-3600
▁chest	-3601
▁gly	-3602
unt	-3603
▁Fin	-3604
▁respiratory	-3605
▁relationship	-3606
▁international	-3607
▁theory	-3608
▁started	-3609
▁gard	-3610
▁payment	-3611
▁atmosphere	-3612
▁nutrition	-3613
▁activities	-3614
▁Sea	-3615
▁cryst	-3616
estic	-3617
eration	-3618
▁ach	-3619
▁fr	-3620
▁mit	-3621
▁Sept	-3622
▁glob	-3623
▁commercial	-3624
▁Sk	-3625
asis	-3626
board	-3627
▁kidneys	-3628
▁enzymes	-3629
duction	-3630
▁log	-3631
▁ut	-3632
▁genes	-3633
lob	-3634
▁http	-3635
icians	-3636
▁France	-3637
▁describe	-3638
▁eight	-3639
▁style	-3640
▁monthly	-3641
▁poll	-3642
▁roof	-3643
▁affected	-3644
▁gets	-3645
▁fine	-3646
ources	-3647
▁prior	-3648
▁received	-3649
▁soci	-3650
▁therefore	-3651
▁Get	-3652
▁east	-3653
lying	-3654
▁compet	-3655
SE	-3656
▁Cook	-3657
11	-3658
oud	-3659
▁sus	-3660
▁southern	-3661
▁fruits	-3662
▁pick	-3663
▁pig	-3664
▁Just	-3665
▁germ	-3666
▁muc	-3667
▁currency	-3668
ophy	-3669
▁title	-3670
terior	-3671
▁popularity	-3672
▁194	-3673
▁mort	-3674
hea	-3675
umber	-3676
▁nursing	-3677
my	-3678
▁suppl	-3679
▁subs	-3680
east	-3681
empt	-3682
▁viruses	-3683
▁loan	-3684
▁weigh	-3685
▁baking	-3686
▁particularly	-3687
▁team	-3688
▁Windows	-3689
▁ax	-3690
▁rank	-3691
▁Sun	-3692
▁mountain	-3693
▁flag	-3694
▁fill	-3695
▁Loc	-3696
▁#	-3697
▁Aut	-3698
▁currently	-3699
bor	-3700
▁ble	-3701
augh	-3702
▁walls	-3703
osure	-3704
▁cavity	-3705
▁band	-3706
▁waste	-3707
ondon	-3708
organ	-3709
▁presence	-3710
▁mag	-3711
▁rice	-3712
oming	-3713
▁examples	-3714
▁nurse	-3715
▁controll	-3716
▁AT	-3717
▁rout	-3718
▁throat	-3719
▁purchase	-3720
▁Ben	-3721
▁billion	-3722
▁trig	-3723
▁layers	-3724
ledge	-3725
▁concer	-3726
▁son	-3727
▁planet	-3728
▁becomes	-3729
▁Port	-3730
▁cart	-3731
iated	-3732
pir	-3733
▁breed	-3734
▁Both	-3735
▁rights	-3736
▁ingredients	-3737
▁northern	-3738
-4	-3739
west	-3740
▁genus	-3741
isp	-3742
▁strength	-3743
▁chart	-3744
ha	-3745
▁moving	-3746
▁surname	-3747
▁tele	-3748
▁500	-3749
ingu	-3750
▁experien	-3751
▁outer	-3752
▁Name	-3753
▁agre	-3754
umn	-3755
▁actual	-3756
▁lines	-3757
▁policy	-3758
▁woman	-3759
▁hyper	-3760
pri	-3761
.)	-3762
▁reactions	-3763
rs	-3764
▁construction	-3765
▁scale	-3766
▁Under	-3767
atives	-3768
fish	-3769
uture	-3770
cell	-3771
▁involves	-3772
▁formula	-3773
▁running	-3774
ned	-3775
vis	-3776
ican	-3777
▁Net	-3778
▁perfect	-3779
▁pup	-3780
▁beginning	-3781
reas	-3782
tings	-3783
ascular	-3784
▁options	-3785
▁immed	-3786
▁shell	-3787
▁medications	-3788
ras	-3789
▁spir	-3790
▁Hist	-3791
▁got	-3792
▁Fam	-3793
▁river	-3794
gage	-3795
▁Met	-3796
▁refrigerator	-3797
ades	-3798
▁bath	-3799
▁contribut	-3800
▁immediate	-3801
▁emer	-3802
known	-3803
ux	-3804
▁Symptoms	-3805
▁Hum	-3806
▁wear	-3807
▁expenses	-3808
icon	-3809
▁inner	-3810
▁described	-3811
ukary	-3812
▁Medical	-3813
iant	-3814
▁characteristics	-3815
▁London	-3816
formation	-3817
▁technology	-3818
▁established	-3819
aun	-3820
▁starts	-3821
ocol	-3822
▁artery	-3823
▁2,	-3824
ully	-3825
▁parents	-3826
ara	-3827
▁stage	-3828
heit	-3829
▁horse	-3830
▁150	-3831
inese	-3832
▁European	-3833
▁Op	-3834
arian	-3835
▁cand	-3836
▁girls	-3837
heat	-3838
▁Up	-3839
oglob	-3840
▁overall	-3841
▁22	-3842
uries	-3843
▁spend	-3844
▁Home	-3845
▁den	-3846
▁foreign	-3847
▁Ang	-3848
undred	-3849
▁Bas	-3850
▁whose	-3851
▁Spec	-3852
▁Common	-3853
▁took	-3854
▁bed	-3855
▁ball	-3856
13	-3857
▁legs	-3858
▁winter	-3859
▁teac	-3860
AL	-3861
▁gast	-3862
▁September	-3863
▁bind	-3864
acific	-3865
▁UK	-3866
▁habit	-3867
▁impact	-3868
▁board	-3869
ael	-3870
▁sac	-3871
▁iP	-3872
ometimes	-3873
cember	-3874
poses	-3875
▁held	-3876
▁kilomet	-3877
▁quant	-3878
▁195	-3879
▁leaf	-3880
▁isn	-3881
gypt	-3882
gia	-3883
ahren	-3884
utions	-3885
ocytes	-3886
▁leading	-3887
▁deal	-3888
▁cub	-3889
▁Italian	-3890
earch	-3891
▁knee	-3892
14	-3893
▁equipment	-3894
▁Abuse	-3895
ahrenheit	-3896
▁International	-3897
▁bonds	-3898
obile	-3899
▁hospital	-3900
16	-3901
▁duct	-3902
care	-3903
▁alb	-3904
▁Colle	-3905
ID	-3906
▁counter	-3907
▁Any	-3908
▁Then	-3909
ague	-3910
▁laws	-3911
▁Central	-3912
ira	-3913
▁aud	-3914
ridge	-3915
encies	-3916
RE	-3917
”.	-3918
lets	-3919
▁workers	-3920
▁Egypt	-3921
▁grill	-3922
▁earli	-3923
lin	-3924
zen	-3925
▁Cons	-3926
aph	-3927
▁performed	-3928
set	-3929
cers	-3930
▁pal	-3931
▁behind	-3932
▁recent	-3933
▁steps	-3934
▁Pat	-3935
▁ord	-3936
▁electricity	-3937
▁schools	-3938
▁March	-3939
▁component	-3940
▁Washington	-3941
▁student	-3942
rast	-3943
▁ast	-3944
▁values	-3945
plant	-3946
▁decl	-3947
rim	-3948
▁tom	-3949
▁Another	-3950
▁piece	-3951
▁tooth	-3952
▁frequently	-3953
idge	-3954
▁testing	-3955
▁properly	-3956
ilies	-3957
ureau	-3958
▁Read	-3959
▁incub	-3960
amples	-3961
▁Treat	-3962
▁Republic	-3963
▁Pen	-3964
▁flex	-3965
▁appears	-3966
▁inject	-3967
▁cra	-3968
▁super	-3969
▁powder	-3970
▁Tem	-3971
▁votes	-3972
▁wine	-3973
▁trust	-3974
▁dead	-3975
▁insect	-3976
olf	-3977
adem	-3978
▁Source	-3979
▁·	-3980
▁figure	-3981
▁express	-3982
▁rub	-3983
press	-3984
▁fair	-3985
▁histor	-3986
▁Ser	-3987
▁profession	-3988
▁Sub	-3989
▁pump	-3990
▁manufacture	-3991
back	-3992
▁sav	-3993
▁2013	-3994
inated	-3995
istry	-3996
▁rise	-3997
▁Now	-3998
▁spl	-3999
▁African	-4000
▁Find	-4001
▁execut	-4002
down	-4003
▁phen	-4004
▁Cur	-4005
▁Water	-4006
▁percentage	-4007
▁lig	-4008
▁items	-4009
▁syll	-4010
▁ice	-4011
▁nose	-4012
▁Stud	-4013
▁web	-4014
za	-4015
▁speak	-4016
▁ec	-4017
▁God	-4018
arrow	-4019
▁lob	-4020
▁House	-4021
▁plastic	-4022
▁publ	-4023
era	-4024
▁print	-4025
▁wire	-4026
RS	-4027
▁Comm	-4028
▁juice	-4029
AD	-4030
▁23	-4031
entially	-4032
▁neut	-4033
omb	-4034
itch	-4035
▁serving	-4036
▁review	-4037
aced	-4038
▁solar	-4039
▁roots	-4040
uit	-4041
unk	-4042
▁storage	-4043
▁components	-4044
▁attached	-4045
▁Del	-4046
agus	-4047
▁passed	-4048
▁civil	-4049
ership	-4050
AS	-4051
▁Post	-4052
ternal	-4053
▁frequency	-4054
▁anything	-4055
iology	-4056
▁shall	-4057
▁window	-4058
aper	-4059
▁status	-4060
new	-4061
▁originally	-4062
▁final	-4063
▁Let	-4064
▁stock	-4065
ococc	-4066
▁analysis	-4067
▁enj	-4068
▁rapid	-4069
fully	-4070
▁Fahrenheit	-4071
▁tou	-4072
▁ure	-4073
▁$200	-4074
▁sides	-4075
▁300	-4076
▁swelling	-4077
▁valve	-4078
LS	-4079
iful	-4080
▁Haw	-4081
▁sulf	-4082
▁prefer	-4083
selves	-4084
▁president	-4085
▁Ocean	-4086
ribute	-4087
▁potassium	-4088
urated	-4089
▁corpor	-4090
py	-4091
▁Form	-4092
onym	-4093
▁stick	-4094
itute	-4095
▁dental	-4096
▁benefit	-4097
▁emb	-4098
ctors	-4099
▁inch	-4100
▁bachelor	-4101
▁roughly	-4102
19	-4103
lant	-4104
▁Cert	-4105
esium	-4106
▁chemicals	-4107
▁reference	-4108
▁raw	-4109
▁radio	-4110
such	-4111
iety	-4112
▁recorded	-4113
▁Italy	-4114
▁initial	-4115
▁Lear	-4116
IS	-4117
▁flour	-4118
plication	-4119
▁party	-4120
▁radiation	-4121
▁licens	-4122
▁Sum	-4123
▁tropical	-4124
▁hundred	-4125
▁poison	-4126
▁6.	-4127
▁thus	-4128
▁Sl	-4129
BA	-4130
abric	-4131
▁Pacific	-4132
▁hol	-4133
astern	-4134
obic	-4135
ensus	-4136
▁Social	-4137
▁stret	-4138
▁birds	-4139
▁Irish	-4140
▁relig	-4141
▁formation	-4142
ado	-4143
▁Bro	-4144
▁CO	-4145
zing	-4146
▁Depend	-4147
▁discuss	-4148
hib	-4149
▁king	-4150
▁fully	-4151
hens	-4152
▁View	-4153
▁button	-4154
eties	-4155
wise	-4156
▁followed	-4157
osing	-4158
▁identify	-4159
urt	-4160
▁taxes	-4161
▁spring	-4162
▁constant	-4163
▁Arab	-4164
mark	-4165
▁paras	-4166
▁classified	-4167
▁Off	-4168
▁installed	-4169
brew	-4170
▁Phot	-4171
▁ring	-4172
▁10%	-4173
iding	-4174
▁continue	-4175
▁193	-4176
▁$15	-4177
ithel	-4178
▁fats	-4179
▁desert	-4180
ye	-4181
▁Har	-4182
▁farm	-4183
▁heavy	-4184
▁doing	-4185
▁bon	-4186
▁Pers	-4187
▁removed	-4188
▁Micro	-4189
▁pharm	-4190
▁tour	-4191
▁exchange	-4192
▁alone	-4193
▁cities	-4194
▁registered	-4195
▁survey	-4196
▁measured	-4197
▁performance	-4198
▁alle	-4199
▁replacement	-4200
▁fatty	-4201
ensation	-4202
▁future	-4203
▁herb	-4204
▁clinical	-4205
▁bread	-4206
▁skele	-4207
▁Chinese	-4208
▁cash	-4209
▁potatoes	-4210
▁purposes	-4211
▁2010	-4212
▁files	-4213
stone	-4214
▁believe	-4215
▁bladder	-4216
▁2012	-4217
▁Even	-4218
▁serve	-4219
▁Bureau	-4220
TION	-4221
▁wed	-4222
efore	-4223
vest	-4224
▁Feb	-4225
▁target	-4226
▁Techn	-4227
▁appearance	-4228
isl	-4229
▁Check	-4230
oids	-4231
ately	-4232
▁December	-4233
▁extremely	-4234
lar	-4235
ona	-4236
▁integ	-4237
dominal	-4238
▁School	-4239
▁compar	-4240
▁charges	-4241
▁Roman	-4242
▁Statistics	-4243
▁talk	-4244
▁kill	-4245
▁grown	-4246
idity	-4247
▁Rel	-4248
▁Her	-4249
▁auto	-4250
▁roll	-4251
▁spr	-4252
osa	-4253
▁extract	-4254
▁tea	-4255
▁applications	-4256
vert	-4257
▁pull	-4258
▁protection	-4259
▁story	-4260
itect	-4261
▁lung	-4262
▁reasons	-4263
▁resulting	-4264
oli	-4265
▁placed	-4266
65	-4267
iring	-4268
▁Test	-4269
ban	-4270
▁boys	-4271
ovember	-4272
▁Origin	-4273
▁50%	-4274
▁dang	-4275
▁distribution	-4276
▁fungi	-4277
▁oun	-4278
▁ones	-4279
LE	-4280
pes	-4281
▁detail	-4282
▁Ref	-4283
▁neu	-4284
▁rule	-4285
▁neurons	-4286
▁mm	-4287
▁copy	-4288
▁Elect	-4289
which	-4290
▁yourself	-4291
▁His	-4292
▁Service	-4293
▁interact	-4294
▁father	-4295
▁wet	-4296
▁covers	-4297
▁former	-4298
rest	-4299
▁focus	-4300
xiety	-4301
erally	-4302
uration	-4303
▁estate	-4304
yth	-4305
aked	-4306
▁mis	-4307
▁$500	-4308
▁choice	-4309
▁studies	-4310
ago	-4311
sequ	-4312
▁ham	-4313
18	-4314
iqu	-4315
▁Blood	-4316
▁save	-4317
▁details	-4318
▁direction	-4319
▁Ze	-4320
▁Black	-4321
▁garden	-4322
▁else	-4323
▁themselves	-4324
ometer	-4325
son	-4326
▁minor	-4327
▁Bra	-4328
▁door	-4329
oglobin	-4330
urch	-4331
▁cream	-4332
▁Bar	-4333
asion	-4334
50.	-4335
▁pel	-4336
▁branch	-4337
ota	-4338
worm	-4339
▁treated	-4340
▁bodies	-4341
▁knowledge	-4342
▁hands	-4343
▁connective	-4344
▁broken	-4345
▁adjust	-4346
▁cough	-4347
neum	-4348
▁lives	-4349
▁machine	-4350
▁drain	-4351
ny	-4352
▁yeast	-4353
ictionary	-4354
▁ion	-4355
▁yet	-4356
ogram	-4357
▁Virgin	-4358
igen	-4359
▁runs	-4360
▁zone	-4361
▁served	-4362
▁Department	-4363
▁bowl	-4364
▁Security	-4365
▁dim	-4366
ruary	-4367
▁gran	-4368
atab	-4369
▁equival	-4370
utch	-4371
▁enjoy	-4372
▁diameter	-4373
▁firm	-4374
▁accur	-4375
▁notice	-4376
▁cast	-4377
▁wat	-4378
▁Class	-4379
▁Out	-4380
▁spine	-4381
▁Bu	-4382
asp	-4383
www	-4384
▁Don	-4385
▁combined	-4386
▁Two	-4387
born	-4388
pre	-4389
▁grains	-4390
▁remains	-4391
▁annually	-4392
IV	-4393
▁Sen	-4394
bral	-4395
draw	-4396
isms	-4397
athy	-4398
▁phr	-4399
omer	-4400
▁rules	-4401
▁insert	-4402
▁Note	-4403
▁soon	-4404
▁General	-4405
▁represents	-4406
▁display	-4407
cal	-4408
ructions	-4409
nes	-4410
rows	-4411
▁ratio	-4412
▁political	-4413
iliar	-4414
▁acqu	-4415
▁Day	-4416
▁Constitution	-4417
▁employer	-4418
OS	-4419
▁inher	-4420
irement	-4421
▁pure	-4422
▁AC	-4423
▁battery	-4424
▁measures	-4425
▁od	-4426
▁ple	-4427
▁wid	-4428
▁favor	-4429
800	-4430
urg	-4431
▁secre	-4432
▁Vitamin	-4433
umps	-4434
▁concentration	-4435
▁veins	-4436
ham	-4437
agen	-4438
▁stores	-4439
▁charged	-4440
hood	-4441
▁tables	-4442
▁islands	-4443
ulated	-4444
▁26	-4445
▁seg	-4446
ptom	-4447
▁Gra	-4448
▁dissol	-4449
▁fixed	-4450
aryn	-4451
ishing	-4452
imb	-4453
▁pronounced	-4454
▁bot	-4455
▁spok	-4456
▁security	-4457
▁Cour	-4458
▁guide	-4459
ochond	-4460
▁Law	-4461
100	-4462
▁Mich	-4463
▁rab	-4464
▁Set	-4465
▁thor	-4466
▁goods	-4467
aled	-4468
▁fund	-4469
▁nitrogen	-4470
rops	-4471
▁looks	-4472
▁paying	-4473
▁specifically	-4474
alu	-4475
▁depression	-4476
▁hepat	-4477
▁(4	-4478
▁evidence	-4479
▁meal	-4480
▁airport	-4481
free	-4482
▁diarr	-4483
▁core	-4484
▁Before	-4485
▁irrit	-4486
▁fabric	-4487
heast	-4488
▁tube	-4489
▁changed	-4490
▁increasing	-4491
carb	-4492
▁lact	-4493
▁eukary	-4494
▁instance	-4495
ibr	-4496
▁Western	-4497
iling	-4498
▁Di	-4499
house	-4500
▁appropri	-4501
▁7.	-4502
RNA	-4503
▁cab	-4504
rus	-4505
▁paint	-4506
▁Roth	-4507
▁letter	-4508
BC	-4509
▁adop	-4510
▁waves	-4511
van	-4512
▁couple	-4513
IT	-4514
▁draw	-4515
▁analy	-4516
alled	-4517
▁methods	-4518
▁meters	-4519
▁pieces	-4520
▁pregnant	-4521
35	-4522
apor	-4523
▁hous	-4524
cript	-4525
▁elev	-4526
erved	-4527
▁hom	-4528
▁Mac	-4529
▁tong	-4530
onds	-4531
erent	-4532
▁narrow	-4533
▁1000	-4534
▁urinary	-4535
▁park	-4536
rew	-4537
▁Bab	-4538
▁2000	-4539
▁White	-4540
▁skills	-4541
▁bor	-4542
▁reflect	-4543
▁electron	-4544
▁cellular	-4545
ained	-4546
▁connected	-4547
pet	-4548
now	-4549
▁grows	-4550
ogle	-4551
▁camp	-4552
shaped	-4553
▁ensure	-4554
▁polymer	-4555
▁driving	-4556
▁fertil	-4557
aint	-4558
▁capac	-4559
▁Atlant	-4560
▁November	-4561
▁Association	-4562
stream	-4563
▁note	-4564
▁Gold	-4565
▁alk	-4566
▁kinds	-4567
▁budget	-4568
▁boy	-4569
▁safety	-4570
▁apart	-4571
▁upd	-4572
▁viral	-4573
rup	-4574
▁USA	-4575
arter	-4576
▁neuro	-4577
▁trade	-4578
▁Dist	-4579
▁discovered	-4580
▁wave	-4581
▁sample	-4582
▁Kingdom	-4583
▁introduced	-4584
▁progress	-4585
chen	-4586
▁citiz	-4587
▁mail	-4588
▁Cle	-4589
▁household	-4590
▁scientific	-4591
95	-4592
▁resources	-4593
ums	-4594
posed	-4595
▁periods	-4596
▁reduced	-4597
▁Mod	-4598
ED	-4599
inter	-4600
▁families	-4601
▁acts	-4602
ET	-4603
airy	-4604
▁straight	-4605
la	-4606
▁tear	-4607
▁variable	-4608
▁Hel	-4609
▁mixed	-4610
▁reports	-4611
▁plays	-4612
▁shoulder	-4613
▁processing	-4614
▁stem	-4615
▁insulin	-4616
▁respiration	-4617
col	-4618
▁beautiful	-4619
▁dial	-4620
▁bron	-4621
▁writing	-4622
▁mac	-4623
▁master	-4624
sor	-4625
▁Remove	-4626
▁Ret	-4627
▁sheet	-4628
▁garlic	-4629
▁external	-4630
▁PC	-4631
▁Code	-4632
ka	-4633
▁Care	-4634
asma	-4635
inine	-4636
▁Child	-4637
74	-4638
▁Nor	-4639
▁existing	-4640
ror	-4641
fall	-4642
▁surrounding	-4643
▁Stand	-4644
▁February	-4645
▁toxic	-4646
▁western	-4647
enty	-4648
hemical	-4649
▁Tod	-4650
het	-4651
ffee	-4652
▁particles	-4653
▁Hebrew	-4654
bra	-4655
▁rash	-4656
▁founded	-4657
▁acute	-4658
▁email	-4659
part	-4660
▁Mark	-4661
luding	-4662
isions	-4663
omas	-4664
▁verb	-4665
▁vision	-4666
▁cloth	-4667
▁Airport	-4668
▁exposure	-4669
▁TV	-4670
iers	-4671
ession	-4672
▁Their	-4673
▁indicate	-4674
▁Green	-4675
▁perman	-4676
icial	-4677
▁friend	-4678
▁epithel	-4679
▁Internet	-4680
asts	-4681
bert	-4682
▁oral	-4683
▁military	-4684
▁equivalent	-4685
▁emot	-4686
▁Union	-4687
▁differences	-4688
ville	-4689
ocrine	-4690
▁domestic	-4691
▁Depending	-4692
CO	-4693
oice	-4694
▁request	-4695
▁Make	-4696
yn	-4697
acing	-4698
iotic	-4699
▁worked	-4700
▁spot	-4701
▁motion	-4702
22	-4703
ca	-4704
▁aid	-4705
▁tiny	-4706
perm	-4707
▁Center	-4708
yg	-4709
▁Bus	-4710
▁atom	-4711
▁abdominal	-4712
▁75	-4713
▁determined	-4714
lim	-4715
▁soy	-4716
▁anxiety	-4717
▁ventric	-4718
come	-4719
▁lear	-4720
▁Rec	-4721
▁inn	-4722
▁homes	-4723
▁pancreas	-4724
▁tail	-4725
▁independent	-4726
illa	-4727
gency	-4728
▁passport	-4729
▁user	-4730
▁flight	-4731
,”	-4732
▁College	-4733
rote	-4734
erobic	-4735
▁2011	-4736
ema	-4737
▁Please	-4738
▁station	-4739
▁pink	-4740
▁spect	-4741
ENT	-4742
▁BC	-4743
▁inhib	-4744
▁fight	-4745
▁copper	-4746
▁Hawai	-4747
aska	-4748
▁lost	-4749
▁Prof	-4750
jective	-4751
iotics	-4752
▁diarrhea	-4753
▁contrast	-4754
▁tempor	-4755
▁Ste	-4756
▁adapt	-4757
▁setting	-4758
▁onto	-4759
▁Company	-4760
oring	-4761
unct	-4762
▁Cell	-4763
▁ready	-4764
atabase	-4765
▁Govern	-4766
PS	-4767
▁ul	-4768
▁Spain	-4769
▁deficiency	-4770
king	-4771
duc	-4772
▁faster	-4773
esh	-4774
▁mer	-4775
▁mile	-4776
▁hit	-4777
24	-4778
▁issues	-4779
elsius	-4780
tenance	-4781
▁alg	-4782
▁Share	-4783
ford	-4784
▁border	-4785
▁heating	-4786
▁twice	-4787
▁Sometimes	-4788
▁therap	-4789
▁elig	-4790
▁entry	-4791
▁Carb	-4792
ographic	-4793
▁varieties	-4794
▁foss	-4795
▁steel	-4796
cin	-4797
aching	-4798
posite	-4799
▁events	-4800
▁unless	-4801
plements	-4802
▁capt	-4803
rug	-4804
▁36	-4805
top	-4806
clus	-4807
▁sequence	-4808
▁Phil	-4809
▁IN	-4810
▁opening	-4811
▁item	-4812
▁absorb	-4813
DL	-4814
▁prepar	-4815
ibly	-4816
▁vine	-4817
▁65	-4818
▁lose	-4819
%.	-4820
▁Bay	-4821
▁evalu	-4822
▁happens	-4823
▁hepatitis	-4824
foot	-4825
-20	-4826
▁approved	-4827
▁withdraw	-4828
▁thousands	-4829
ollow	-4830
▁column	-4831
▁Work	-4832
▁unc	-4833
▁Lake	-4834
▁uter	-4835
▁message	-4836
▁Middle	-4837
▁spoken	-4838
▁mental	-4839
▁player	-4840
▁cats	-4841
uge	-4842
soft	-4843
▁Wik	-4844
US	-4845
inch	-4846
▁kept	-4847
▁territ	-4848
▁electro	-4849
▁coc	-4850
▁devices	-4851
▁Full	-4852
▁nucleot	-4853
vant	-4854
cycl	-4855
ech	-4856
eed	-4857
▁pap	-4858
▁track	-4859
▁failure	-4860
▁chromosomes	-4861
▁send	-4862
▁restaur	-4863
ester	-4864
▁ancest	-4865
▁Information	-4866
▁vag	-4867
▁prescrib	-4868
ods	-4869
▁oste	-4870
▁describes	-4871
monary	-4872
▁ideal	-4873
▁customers	-4874
▁Face	-4875
ipal	-4876
overy	-4877
atically	-4878
▁Japanese	-4879
▁dut	-4880
igure	-4881
▁eastern	-4882
▁Mc	-4883
▁jud	-4884
rought	-4885
roy	-4886
▁har	-4887
ocy	-4888
▁producing	-4889
▁Que	-4890
▁186	-4891
▁repe	-4892
▁convert	-4893
▁powerful	-4894
▁Confidence	-4895
▁greatly	-4896
osynthesis	-4897
brev	-4898
▁coat	-4899
MS	-4900
▁Virginia	-4901
▁intake	-4902
▁Every	-4903
iber	-4904
▁county	-4905
▁400	-4906
▁salmon	-4907
▁Bi	-4908
▁miss	-4909
▁stands	-4910
▁nuclear	-4911
oa	-4912
▁Generally	-4913
▁$1,000	-4914
▁whereas	-4915
-6	-4916
▁cam	-4917
▁everything	-4918
▁32	-4919
trans	-4920
▁Keep	-4921
▁electrons	-4922
▁carries	-4923
inations	-4924
▁ATP	-4925
▁Mass	-4926
▁renew	-4927
▁customer	-4928
▁frame	-4929
▁decrease	-4930
▁digestion	-4931
ceed	-4932
tion	-4933
▁$20	-4934
▁190	-4935
ming	-4936
itable	-4937
▁$25	-4938
▁metabolism	-4939
ey	-4940
word	-4941
ky	-4942
▁cartil	-4943
▁excell	-4944
▁$1.	-4945
▁Prot	-4946
85	-4947
▁Rh	-4948
▁mi	-4949
▁poor	-4950
▁ages	-4951
▁lies	-4952
▁resident	-4953
▁$12	-4954
oons	-4955
▁$0.	-4956
▁providing	-4957
▁caps	-4958
▁agreement	-4959
▁magnesium	-4960
▁frag	-4961
▁vote	-4962
▁surge	-4963
RO	-4964
▁rev	-4965
▁Stre	-4966
▁Americans	-4967
▁immediately	-4968
aneous	-4969
ded	-4970
▁flav	-4971
CA	-4972
yme	-4973
uts	-4974
________	-4975
▁oz	-4976
hour	-4977
▁Learn	-4978
ricult	-4979
▁Northern	-4980
-5	-4981
▁distingu	-4982
▁Pri	-4983
▁advant	-4984
▁biological	-4985
▁supplement	-4986
▁bright	-4987
zz	-4988
▁seconds	-4989
17	-4990
▁sch	-4991
▁aspect	-4992
▁ster	-4993
▁published	-4994
▁ign	-4995
oral	-4996
▁veter	-4997
▁forming	-4998
▁strateg	-4999
▁chromosome	-5000
igation	-5001
▁tongue	-5002
▁vegetable	-5003
▁turkey	-5004
▁exactly	-5005
▁becoming	-5006
▁clot	-5007
▁ven	-5008
▁road	-5009
▁economic	-5010
▁alternative	-5011
ss	-5012
ought	-5013
▁Federal	-5014
▁breathing	-5015
uments	-5016
▁hatch	-5017
▁females	-5018
▁appropriate	-5019
▁Ann	-5020
▁forest	-5021
▁influence	-5022
itan	-5023
▁earnings	-5024
lection	-5025
▁questions	-5026
▁glut	-5027
▁believed	-5028
▁menu	-5029
ocr	-5030
ivery	-5031
nthetic	-5032
▁peak	-5033
▁recip	-5034
▁alumin	-5035
▁adding	-5036
▁assess	-5037
▁Start	-5038
▁ranging	-5039
▁Lou	-5040
▁label	-5041
▁Bet	-5042
vention	-5043
▁memory	-5044
▁$300	-5045
▁Educ	-5046
ios	-5047
▁gro	-5048
▁smok	-5049
▁pH	-5050
▁load	-5051
▁scan	-5052
▁2015.	-5053
▁Install	-5054
iest	-5055
▁wages	-5056
▁retirement	-5057
▁tow	-5058
▁Cap	-5059
▁$150	-5060
▁Enter	-5061
▁category	-5062
▁ferment	-5063
ola	-5064
▁Edit	-5065
▁Inter	-5066
▁developing	-5067
▁legisl	-5068
ket	-5069
▁collection	-5070
iatric	-5071
▁Av	-5072
▁architect	-5073
place	-5074
▁receptors	-5075
ipedia	-5076
▁distribut	-5077
acchar	-5078
▁moderate	-5079
aments	-5080
▁mammals	-5081
aland	-5082
▁cred	-5083
▁James	-5084
▁48	-5085
ker	-5086
▁Yes	-5087
ext	-5088
kin	-5089
▁frozen	-5090
onst	-5091
▁lining	-5092
▁sediment	-5093
tes	-5094
ranes	-5095
ander	-5096
▁27	-5097
from	-5098
venue	-5099
▁viol	-5100
▁allowed	-5101
▁occurring	-5102
stru	-5103
▁Australian	-5104
▁learning	-5105
45	-5106
▁oxid	-5107
▁Today	-5108
▁nodes	-5109
otal	-5110
adian	-5111
IP	-5112
▁giving	-5113
▁William	-5114
▁abund	-5115
related	-5116
▁commit	-5117
asal	-5118
▁wedding	-5119
▁engineering	-5120
eph	-5121
▁Phys	-5122
.).	-5123
ait	-5124
idi	-5125
▁Select	-5126
iva	-5127
▁ped	-5128
▁Card	-5129
St	-5130
▁seem	-5131
▁shop	-5132
▁operating	-5133
▁Carol	-5134
▁males	-5135
▁mortgage	-5136
▁quart	-5137
alty	-5138
▁derm	-5139
▁mold	-5140
▁owner	-5141
▁retail	-5142
▁prepared	-5143
craft	-5144
▁plans	-5145
▁Celsius	-5146
▁attract	-5147
▁seat	-5148
▁sin	-5149
immune	-5150
▁contribute	-5151
▁alt	-5152
▁starch	-5153
▁cleaning	-5154
▁particip	-5155
);	-5156
33	-5157
▁Vis	-5158
resp	-5159
▁died	-5160
atitis	-5161
▁easier	-5162
▁container	-5163
▁Rad	-5164
agious	-5165
ipping	-5166
▁Examples	-5167
version	-5168
▁freezer	-5169
ptic	-5170
▁pneum	-5171
▁cortex	-5172
▁gases	-5173
▁Dem	-5174
sis	-5175
▁Therefore	-5176
▁sick	-5177
▁opport	-5178
gent	-5179
mary	-5180
▁players	-5181
▁accounts	-5182
▁rid	-5183
▁global	-5184
▁complic	-5185
▁bleeding	-5186
▁please	-5187
umes	-5188
▁cru	-5189
gr	-5190
▁furn	-5191
▁grain	-5192
▁incor	-5193
▁breath	-5194
▁package	-5195
27	-5196
▁Facebook	-5197
▁py	-5198
cles	-5199
▁ions	-5200
▁manager	-5201
▁completed	-5202
rupt	-5203
renal	-5204
▁monitor	-5205
▁symptom	-5206
▁Time	-5207
▁Color	-5208
ishes	-5209
acteria	-5210
▁prescription	-5211
ipher	-5212
▁pret	-5213
rich	-5214
▁ends	-5215
▁attempt	-5216
▁users	-5217
▁mention	-5218
mar	-5219
▁Tax	-5220
▁tim	-5221
▁babies	-5222
with	-5223
▁kids	-5224
▁phrase	-5225
▁sale	-5226
▁tab	-5227
cont	-5228
▁fel	-5229
▁rect	-5230
heum	-5231
▁sche	-5232
ipl	-5233
▁Ob	-5234
▁Fore	-5235
▁Miss	-5236
▁painful	-5237
nic	-5238
▁closely	-5239
▁supplements	-5240
▁Are	-5241
▁phosphate	-5242
▁anest	-5243
▁oldest	-5244
▁coverage	-5245
off	-5246
▁numerous	-5247
▁diagnosis	-5248
iced	-5249
▁shar	-5250
▁coffee	-5251
▁maintenance	-5252
lam	-5253
▁Pass	-5254
▁orange	-5255
▁issue	-5256
▁composition	-5257
▁sq	-5258
hone	-5259
▁premium	-5260
▁bile	-5261
▁secondary	-5262
▁(5	-5263
▁Plant	-5264
MA	-5265
▁flows	-5266
▁Direct	-5267
▁Overview	-5268
▁120	-5269
EC	-5270
▁$30	-5271
,000,	-5272
net	-5273
▁train	-5274
des	-5275
▁invented	-5276
oors	-5277
▁Organ	-5278
▁feeling	-5279
▁cot	-5280
▁Back	-5281
▁yearly	-5282
▁visible	-5283
▁shel	-5284
▁vill	-5285
▁Columb	-5286
▁remaining	-5287
idel	-5288
▁dairy	-5289
▁alph	-5290
▁specialized	-5291
▁plasma	-5292
duate	-5293
▁linked	-5294
▁physician	-5295
▁ingredient	-5296
sm	-5297
▁driver	-5298
▁images	-5299
cil	-5300
▁excellent	-5301
88	-5302
▁Angel	-5303
aria	-5304
oxid	-5305
▁colour	-5306
▁opposite	-5307
▁Ber	-5308
▁Business	-5309
ga	-5310
▁Hem	-5311
▁dominant	-5312
▁characteristic	-5313
▁AN	-5314
anded	-5315
▁investment	-5316
▁wonder	-5317
▁society	-5318
ests	-5319
▁cytoplasm	-5320
▁calculated	-5321
dem	-5322
▁vom	-5323
tra	-5324
orning	-5325
▁classes	-5326
▁played	-5327
ifies	-5328
▁Scott	-5329
▁goal	-5330
▁Vol	-5331
eters	-5332
ayer	-5333
▁moisture	-5334
iance	-5335
▁Medicare	-5336
▁division	-5337
▁contagious	-5338
yond	-5339
rium	-5340
riage	-5341
unic	-5342
▁Office	-5343
▁contamin	-5344
▁Zealand	-5345
▁reaches	-5346
oline	-5347
▁academ	-5348
mal	-5349
▁Web	-5350
▁attention	-5351
▁bronch	-5352
▁anterior	-5353
▁controls	-5354
▁Long	-5355
ulate	-5356
▁Ire	-5357
iform	-5358
flamm	-5359
▁deduct	-5360
orter	-5361
▁aort	-5362
▁ribs	-5363
▁cents	-5364
ifying	-5365
▁Civil	-5366
▁density	-5367
▁assistant	-5368
oda	-5369
omal	-5370
life	-5371
▁moves	-5372
ani	-5373
ora	-5374
▁consisting	-5375
▁kg	-5376
▁antibodies	-5377
pire	-5378
▁dele	-5379
▁agents	-5380
43	-5381
izations	-5382
▁picture	-5383
II	-5384
uls	-5385
▁provider	-5386
▁hip	-5387
attle	-5388
▁sites	-5389
▁follows	-5390
comp	-5391
udden	-5392
▁Administ	-5393
▁certific	-5394
▁planning	-5395
oxy	-5396
cis	-5397
arant	-5398
more	-5399
▁ren	-5400
▁epid	-5401
▁phase	-5402
▁dried	-5403
ya	-5404
▁receives	-5405
wor	-5406
vision	-5407
igue	-5408
▁depth	-5409
▁Ox	-5410
▁Islands	-5411
▁kitchen	-5412
▁comfort	-5413
▁led	-5414
▁stones	-5415
▁calculate	-5416
▁significantly	-5417
▁weakness	-5418
utes	-5419
agers	-5420
ausea	-5421
▁wait	-5422
▁gel	-5423
▁cele	-5424
▁plates	-5425
eren	-5426
▁objects	-5427
look	-5428
ided	-5429
▁elim	-5430
▁relax	-5431
▁acet	-5432
▁pref	-5433
inite	-5434
-10	-5435
▁dent	-5436
▁smell	-5437
▁arms	-5438
▁spirit	-5439
▁sexual	-5440
▁toward	-5441
▁creating	-5442
▁olive	-5443
▁gastro	-5444
ervation	-5445
▁coord	-5446
▁forward	-5447
cut	-5448
dule	-5449
▁ship	-5450
▁Using	-5451
rh	-5452
▁controlled	-5453
▁aqu	-5454
▁went	-5455
▁TH	-5456
▁resistance	-5457
▁Sch	-5458
▁Sil	-5459
▁nothing	-5460
▁sen	-5461
▁Southern	-5462
alm	-5463
▁Program	-5464
▁allergic	-5465
▁compl	-5466
▁removal	-5467
▁executive	-5468
▁Take	-5469
▁lived	-5470
▁output	-5471
othe	-5472
▁facts	-5473
▁graph	-5474
▁Hy	-5475
▁earlier	-5476
▁skeletal	-5477
▁History	-5478
▁Mil	-5479
▁yog	-5480
▁offered	-5481
▁recently	-5482
▁nuts	-5483
uction	-5484
▁Dav	-5485
▁wheat	-5486
▁La	-5487
▁Mary	-5488
▁tools	-5489
▁collected	-5490
▁tumor	-5491
600	-5492
roke	-5493
▁residents	-5494
▁continuous	-5495
▁touch	-5496
▁consult	-5497
▁transmitted	-5498
▁Whe	-5499
▁Open	-5500
▁media	-5501
▁Ireland	-5502
▁Diff	-5503
what	-5504
MP	-5505
▁chance	-5506
▁delivery	-5507
▁sugars	-5508
▁cartilage	-5509
iana	-5510
▁Poly	-5511
▁achieve	-5512
▁variation	-5513
▁mechanical	-5514
▁arri	-5515
▁thermometer	-5516
▁Thus	-5517
roduction	-5518
▁surf	-5519
▁Dise	-5520
▁format	-5521
▁adjective	-5522
▁Low	-5523
▁refund	-5524
▁mom	-5525
domen	-5526
kary	-5527
aker	-5528
▁metals	-5529
hyd	-5530
▁trying	-5531
▁defect	-5532
▁biggest	-5533
▁Nat	-5534
anguage	-5535
▁nine	-5536
▁letters	-5537
▁algae	-5538
▁uncom	-5539
▁locations	-5540
▁membranes	-5541
▁capacity	-5542
force	-5543
ita	-5544
▁spin	-5545
77	-5546
▁write	-5547
▁approach	-5548
▁averages	-5549
▁recipe	-5550
!!	-5551
66	-5552
▁insects	-5553
▁mitochond	-5554
39	-5555
▁tun	-5556
▁doctors	-5557
▁Google	-5558
▁Est	-5559
▁Bank	-5560
▁wrap	-5561
icks	-5562
▁IRS	-5563
▁foil	-5564
long	-5565
▁eventually	-5566
aughter	-5567
▁identified	-5568
▁contraction	-5569
mm	-5570
▁Sing	-5571
▁erupt	-5572
▁vital	-5573
▁ban	-5574
swers	-5575
▁Plan	-5576
▁staff	-5577
▁gross	-5578
▁menstru	-5579
vic	-5580
▁recognized	-5581
ship	-5582
▁Pot	-5583
VER	-5584
izer	-5585
▁functional	-5586
▁Det	-5587
▁row	-5588
▁grade	-5589
▁exposed	-5590
▁drinking	-5591
▁dangerous	-5592
▁fract	-5593
▁psychology	-5594
▁instructions	-5595
▁dietary	-5596
▁database	-5597
▁Microsoft	-5598
▁permanent	-5599
mod	-5600
ura	-5601
▁Mer	-5602
▁Type	-5603
▁width	-5604
▁micros	-5605
▁replaced	-5606
rolog	-5607
▁unus	-5608
▁Alaska	-5609
▁filter	-5610
▁Fact	-5611
▁reading	-5612
▁soluble	-5613
▁serves	-5614
▁industrial	-5615
uis	-5616
▁accounting	-5617
EL	-5618
▁associate	-5619
▁certified	-5620
▁conj	-5621
▁350	-5622
▁tips	-5623
ection	-5624
▁happen	-5625
Wh	-5626
▁vert	-5627
▁influen	-5628
▁synthesis	-5629
▁Human	-5630
▁variant	-5631
▁originated	-5632
▁abdomen	-5633
▁employment	-5634
alam	-5635
32	-5636
haps	-5637
▁cod	-5638
▁branches	-5639
ners	-5640
uitary	-5641
▁Only	-5642
▁promin	-5643
ero	-5644
rat	-5645
▁chann	-5646
▁watch	-5647
▁dram	-5648
▁signed	-5649
▁hypoth	-5650
▁stream	-5651
▁damaged	-5652
▁marketing	-5653
▁blo	-5654
▁leads	-5655
▁bil	-5656
brates	-5657
men	-5658
▁fran	-5659
▁remember	-5660
iable	-5661
▁alkal	-5662
▁Carolina	-5663
▁Mad	-5664
▁friends	-5665
▁technique	-5666
▁Pop	-5667
▁Connect	-5668
▁situated	-5669
weight	-5670
▁Engine	-5671
▁hemoglobin	-5672
▁university	-5673
ococcus	-5674
▁eligible	-5675
▁enh	-5676
▁(#	-5677
▁chief	-5678
▁Hol	-5679
▁Mel	-5680
▁brought	-5681
▁vomiting	-5682
-8	-5683
▁compensation	-5684
▁Hen	-5685
▁heal	-5686
osomes	-5687
▁Group	-5688
▁limits	-5689
▁phil	-5690
▁figures	-5691
▁measurement	-5692
rec	-5693
ancing	-5694
▁books	-5695
▁origins	-5696
▁payments	-5697
▁Education	-5698
▁transact	-5699
300	-5700
▁tap	-5701
▁mobile	-5702
▁understanding	-5703
▁dress	-5704
▁signal	-5705
▁strain	-5706
▁procedures	-5707
▁Blue	-5708
kes	-5709
▁sensory	-5710
▁meanings	-5711
▁purchased	-5712
▁expression	-5713
aming	-5714
icular	-5715
▁George	-5716
▁finish	-5717
but	-5718
▁188	-5719
▁fung	-5720
▁paral	-5721
▁successful	-5722
▁NOT	-5723
itors	-5724
▁abbrev	-5725
▁jour	-5726
▁reached	-5727
▁Non	-5728
▁capill	-5729
▁demand	-5730
MENT	-5731
▁manufacturing	-5732
gical	-5733
▁valid	-5734
▁assign	-5735
green	-5736
▁hors	-5737
▁usage	-5738
.5	-5739
▁Lim	-5740
▁ath	-5741
▁mig	-5742
▁Good	-5743
Cl	-5744
▁forests	-5745
icul	-5746
elles	-5747
▁Russia	-5748
▁estimates	-5749
night	-5750
--------	-5751
▁destroy	-5752
▁fif	-5753
▁anyone	-5754
irus	-5755
ranean	-5756
▁spray	-5757
▁sudden	-5758
▁Ven	-5759
▁beta	-5760
▁Court	-5761
▁Britain	-5762
▁employed	-5763
▁pulmonary	-5764
400	-5765
▁sore	-5766
AP	-5767
▁Cy	-5768
▁Rock	-5769
istant	-5770
▁Usually	-5771
uth	-5772
▁coming	-5773
▁180	-5774
▁corresp	-5775
▁spent	-5776
▁licensed	-5777
▁Pa	-5778
▁Those	-5779
▁neigh	-5780
▁Number	-5781
war	-5782
▁seems	-5783
▁pairs	-5784
enger	-5785
▁respond	-5786
▁precip	-5787
▁grant	-5788
▁Jack	-5789
▁treatments	-5790
▁cos	-5791
▁involve	-5792
bu	-5793
▁Unlike	-5794
▁processed	-5795
enth	-5796
▁visual	-5797
igan	-5798
▁die	-5799
▁Georgia	-5800
▁settings	-5801
▁movements	-5802
▁(6	-5803
level	-5804
▁signals	-5805
▁indicates	-5806
▁simpl	-5807
▁continent	-5808
oted	-5809
▁iPhone	-5810
▁pretty	-5811
▁profit	-5812
▁mountains	-5813
▁vs	-5814
agon	-5815
weet	-5816
▁Den	-5817
▁beyond	-5818
▁supplies	-5819
▁Sat	-5820
▁Scot	-5821
▁huge	-5822
98	-5823
rem	-5824
oub	-5825
▁Sign	-5826
asting	-5827
ingles	-5828
▁burning	-5829
rous	-5830
▁issued	-5831
▁raised	-5832
▁tablesp	-5833
rub	-5834
▁split	-5835
▁Ill	-5836
rosis	-5837
▁stain	-5838
▁attend	-5839
▁carried	-5840
▁Canadian	-5841
▁forces	-5842
▁$10,000	-5843
▁aren	-5844
ulations	-5845
pite	-5846
▁kilometers	-5847
▁Fort	-5848
abil	-5849
ston	-5850
▁Life	-5851
▁tons	-5852
▁threat	-5853
▁incubation	-5854
▁aden	-5855
valent	-5856
▁possess	-5857
▁mes	-5858
▁doses	-5859
▁dys	-5860
▁sizes	-5861
▁circum	-5862
throp	-5863
▁CD	-5864
about	-5865
▁Arch	-5866
▁slowly	-5867
▁Cop	-5868
▁uterus	-5869
▁biology	-5870
▁consumption	-5871
▁tip	-5872
▁humidity	-5873
▁news	-5874
▁occasion	-5875
▁ton	-5876
28	-5877
equ	-5878
cial	-5879
▁exclus	-5880
▁texture	-5881
▁Lic	-5882
▁mature	-5883
▁autoimmune	-5884
onin	-5885
▁uns	-5886
iterranean	-5887
▁harmful	-5888
graduate	-5889
izz	-5890
▁3,	-5891
▁loose	-5892
▁eaten	-5893
▁situation	-5894
ipation	-5895
called	-5896
▁administr	-5897
ju	-5898
▁muscular	-5899
▁connection	-5900
▁oils	-5901
▁Standard	-5902
▁Ve	-5903
▁falls	-5904
▁Credit	-5905
▁comput	-5906
▁agencies	-5907
▁obtained	-5908
▁towards	-5909
▁Atlantic	-5910
▁Typically	-5911
asty	-5912
▁2013,	-5913
▁Amend	-5914
26	-5915
▁myth	-5916
ipheral	-5917
▁transmission	-5918
rot	-5919
▁survive	-5920
▁pituitary	-5921
▁standards	-5922
MI	-5923
▁Cam	-5924
▁und	-5925
▁mening	-5926
▁sports	-5927
vents	-5928
▁bases	-5929
▁sounds	-5930
▁Introduction	-5931
▁environmental	-5932
▁formal	-5933
▁bacterium	-5934
inder	-5935
▁Census	-5936
▁critical	-5937
onor	-5938
▁Ele	-5939
ditional	-5940
▁snow	-5941
▁laboratory	-5942
azon	-5943
▁aluminum	-5944
▁Page	-5945
▁Well	-5946
▁compare	-5947
▁conc	-5948
▁nausea	-5949
▁citizens	-5950
▁250	-5951
▁hun	-5952
▁nest	-5953
▁cable	-5954
▁dependent	-5955
▁arg	-5956
etts	-5957
▁Total	-5958
▁thigh	-5959
▁fairly	-5960
▁postings	-5961
iled	-5962
▁contribution	-5963
▁communication	-5964
▁din	-5965
▁Id	-5966
▁Je	-5967
▁Coun	-5968
▁volt	-5969
▁cerv	-5970
▁positions	-5971
▁stool	-5972
▁raise	-5973
▁morning	-5974
rief	-5975
▁accum	-5976
ellular	-5977
▁passes	-5978
▁%	-5979
olic	-5980
ictor	-5981
▁linear	-5982
▁beer	-5983
▁attach	-5984
▁settle	-5985
▁receptor	-5986
▁crim	-5987
ini	-5988
▁holid	-5989
▁posterior	-5990
isters	-5991
▁quarter	-5992
▁decision	-5993
▁experienced	-5994
▁respectively	-5995
irt	-5996
▁bowel	-5997
▁economy	-5998
▁absorbed	-5999
76	-6000
▁Ari	-6001
▁Main	-6002
▁cond	-6003
▁sperm	-6004
▁closed	-6005
▁Account	-6006
▁2014,	-6007
▁Ep	-6008
▁impl	-6009
rument	-6010
▁cow	-6011
▁Gal	-6012
▁Pan	-6013
osage	-6014
▁aware	-6015
▁antibiotics	-6016
▁delic	-6017
▁define	-6018
In	-6019
▁courses	-6020
▁detailed	-6021
ipped	-6022
▁Disney	-6023
▁semi	-6024
▁tren	-6025
▁desired	-6026
▁accurate	-6027
olute	-6028
▁Prov	-6029
▁guarant	-6030
▁vinegar	-6031
▁virt	-6032
▁speech	-6033
▁bear	-6034
▁Dutch	-6035
▁silver	-6036
▁adrenal	-6037
▁calculator	-6038
▁certification	-6039
ffe	-6040
▁Fre	-6041
▁Mot	-6042
▁Bill	-6043
▁cubic	-6044
ario	-6045
▁everyone	-6046
▁professionals	-6047
▁laun	-6048
▁esoph	-6049
▁dishes	-6050
oderm	-6051
▁pneumonia	-6052
▁transform	-6053
▁Lar	-6054
▁belief	-6055
▁depart	-6056
▁stable	-6057
▁photosynthesis	-6058
▁191	-6059
icles	-6060
point	-6061
▁Free	-6062
▁tank	-6063
▁teacher	-6064
▁chall	-6065
▁academic	-6066
▁Equ	-6067
▁cultural	-6068
▁HIV	-6069
ogenic	-6070
▁converted	-6071
bow	-6072
▁rose	-6073
▁lemon	-6074
▁marine	-6075
rix	-6076
oting	-6077
▁ST	-6078
▁immig	-6079
right	-6080
▁pine	-6081
▁Second	-6082
▁Below	-6083
▁facility	-6084
ady	-6085
▁gram	-6086
▁projects	-6087
▁polar	-6088
▁rarely	-6089
▁Description	-6090
▁Contin	-6091
29	-6092
▁Lo	-6093
mers	-6094
▁List	-6095
▁novel	-6096
▁epis	-6097
▁cotton	-6098
▁efficient	-6099
▁Board	-6100
▁bake	-6101
▁nationwide	-6102
ears	-6103
▁Meth	-6104
▁Louis	-6105
34	-6106
79	-6107
▁rod	-6108
▁ounces	-6109
including	-6110
▁Bre	-6111
▁Rating	-6112
▁4,	-6113
▁Oh	-6114
▁1,000	-6115
▁moved	-6116
▁univers	-6117
▁u	-6118
achus	-6119
▁lasts	-6120
▁ly	-6121
▁structural	-6122
NS	-6123
▁hal	-6124
▁renal	-6125
▁comparison	-6126
▁favorite	-6127
▁documents	-6128
ylum	-6129
▁lamb	-6130
▁Costs	-6131
▁fridge	-6132
▁accepted	-6133
▁Mediterranean	-6134
bell	-6135
orous	-6136
▁finger	-6137
▁attacks	-6138
▁neuron	-6139
▁volcano	-6140
hire	-6141
▁Eth	-6142
%)	-6143
▁29	-6144
▁healing	-6145
orus	-6146
▁End	-6147
▁Chic	-6148
▁stir	-6149
▁appoint	-6150
▁agency	-6151
▁cardiac	-6152
▁covering	-6153
▁fungus	-6154
▁ranked	-6155
▁explain	-6156
▁allowing	-6157
▁filled	-6158
▁strand	-6159
▁infectious	-6160
▁sets	-6161
anol	-6162
▁(0.	-6163
ias	-6164
▁Exper	-6165
▁claims	-6166
▁abundant	-6167
▁chloride	-6168
▁Turn	-6169
▁coal	-6170
▁album	-6171
▁advanced	-6172
lycer	-6173
▁Where	-6174
▁photo	-6175
▁gallon	-6176
ifications	-6177
CH	-6178
▁constit	-6179
etal	-6180
▁Hot	-6181
▁Research	-6182
▁intended	-6183
▁worldwide	-6184
charge	-6185
▁cardi	-6186
▁prescribed	-6187
▁Ter	-6188
▁Rich	-6189
▁mutation	-6190
edy	-6191
▁married	-6192
org	-6193
▁tet	-6194
ragon	-6195
▁trip	-6196
▁unlike	-6197
reek	-6198
heumat	-6199
▁dense	-6200
▁index	-6201
▁photos	-6202
indu	-6203
▁wax	-6204
▁gray	-6205
▁statement	-6206
▁description	-6207
cious	-6208
iques	-6209
▁Vari	-6210
▁immun	-6211
BS	-6212
▁stuff	-6213
▁contributions	-6214
▁philos	-6215
▁wrong	-6216
uma	-6217
▁establish	-6218
apes	-6219
▁Francis	-6220
▁deposit	-6221
▁edge	-6222
itals	-6223
icle	-6224
▁stars	-6225
thra	-6226
rehens	-6227
untary	-6228
inn	-6229
mic	-6230
▁Preheat	-6231
▁lbs	-6232
▁afford	-6233
▁Sol	-6234
▁eukaryotic	-6235
▁radi	-6236
ensions	-6237
▁Manager	-6238
▁Salaries	-6239
▁BLS	-6240
▁Baby	-6241
▁breakdown	-6242
dy	-6243
ek	-6244
▁dra	-6245
▁Eastern	-6246
▁molecular	-6247
ocket	-6248
▁mush	-6249
▁steam	-6250
▁CA	-6251
atomy	-6252
▁sunlight	-6253
.”	-6254
LA	-6255
▁prepare	-6256
▁superior	-6257
bean	-6258
▁absorption	-6259
▁underlying	-6260
▁Nurse	-6261
▁opened	-6262
▁belongs	-6263
▁holds	-6264
▁filing	-6265
rical	-6266
▁util	-6267
achusetts	-6268
▁contractor	-6269
etics	-6270
▁panel	-6271
▁vessel	-6272
▁operations	-6273
zil	-6274
▁paste	-6275
▁collagen	-6276
▁operation	-6277
ING	-6278
▁multi	-6279
▁god	-6280
otype	-6281
▁graduate	-6282
**	-6283
▁$2.	-6284
▁canal	-6285
▁fields	-6286
▁construct	-6287
21	-6288
▁Ten	-6289
▁otherwise	-6290
bone	-6291
inyl	-6292
En	-6293
▁instrument	-6294
▁grav	-6295
issions	-6296
mia	-6297
▁Leg	-6298
▁Wikipedia	-6299
▁extension	-6300
36	-6301
▁susp	-6302
▁Employ	-6303
▁changing	-6304
▁facilities	-6305
rowave	-6306
▁fatigue	-6307
▁surgical	-6308
▁embry	-6309
bits	-6310
▁Ham	-6311
▁dil	-6312
ollen	-6313
▁asked	-6314
▁arrange	-6315
▁stiff	-6316
▁tumors	-6317
oys	-6318
▁earns	-6319
▁nor	-6320
▁breeds	-6321
▁television	-6322
▁Cel	-6323
▁moon	-6324
▁magnetic	-6325
▁context	-6326
▁incorpor	-6327
▁medicines	-6328
oura	-6329
▁fly	-6330
▁Word	-6331
▁Los	-6332
▁exists	-6333
▁scientists	-6334
▁Psych	-6335
▁extensive	-6336
LC	-6337
va	-6338
▁8.	-6339
arynx	-6340
▁yield	-6341
▁gum	-6342
▁creates	-6343
osine	-6344
▁bloodstream	-6345
amorph	-6346
▁Project	-6347
▁vein	-6348
ractions	-6349
▁proport	-6350
ctic	-6351
▁fasc	-6352
▁RE	-6353
▁Mem	-6354
PV	-6355
rooms	-6356
▁fold	-6357
▁anemia	-6358
▁statistics	-6359
phone	-6360
▁lots	-6361
▁somewhat	-6362
izon	-6363
▁2009	-6364
▁evol	-6365
▁breaks	-6366
▁client	-6367
▁Temperature	-6368
nel	-6369
▁31	-6370
▁games	-6371
▁meals	-6372
▁volcanic	-6373
▁Bud	-6374
▁candid	-6375
▁temper	-6376
▁2)	-6377
ucky	-6378
▁teasp	-6379
▁capable	-6380
ua	-6381
▁fing	-6382
▁lateral	-6383
▁cars	-6384
▁waters	-6385
▁decide	-6386
▁$2,	-6387
▁acre	-6388
▁surfaces	-6389
▁nick	-6390
ilit	-6391
▁Heat	-6392
▁Men	-6393
▁$250	-6394
SH	-6395
arsh	-6396
▁told	-6397
▁Massachusetts	-6398
▁Anc	-6399
▁2008	-6400
▁technician	-6401
field	-6402
▁carbohydrate	-6403
▁impul	-6404
paid	-6405
Th	-6406
▁dance	-6407
▁links	-6408
▁assets	-6409
▁patent	-6410
▁circuit	-6411
▁segment	-6412
▁Cat	-6413
▁penalty	-6414
icellular	-6415
▁movie	-6416
▁multip	-6417
▁pigment	-6418
44	-6419
rates	-6420
▁plat	-6421
ductive	-6422
▁hearing	-6423
▁inherited	-6424
▁gut	-6425
▁cultiv	-6426
▁officer	-6427
▁menstrual	-6428
elcome	-6429
mg	-6430
▁Pet	-6431
▁enroll	-6432
▁reve	-6433
usually	-6434
unes	-6435
▁shares	-6436
▁smallest	-6437
▁certificate	-6438
ials	-6439
▁(19	-6440
▁mist	-6441
▁race	-6442
▁prominent	-6443
▁Pal	-6444
▁van	-6445
▁vacu	-6446
▁enlar	-6447
▁suggests	-6448
yer	-6449
▁younger	-6450
▁antioxid	-6451
TH	-6452
▁Services	-6453
transmit	-6454
▁Though	-6455
▁personality	-6456
cope	-6457
▁generation	-6458
iki	-6459
▁$400	-6460
▁obst	-6461
▁odor	-6462
▁fourth	-6463
onary	-6464
▁habitat	-6465
▁largely	-6466
works	-6467
▁metabolic	-6468
▁healthcare	-6469
▁bathroom	-6470
▁oxide	-6471
▁unusual	-6472
▁crack	-6473
▁Mag	-6474
▁debt	-6475
▁isol	-6476
ls	-6477
▁$11	-6478
▁encl	-6479
▁colleges	-6480
▁qualify	-6481
▁Tu	-6482
23	-6483
wing	-6484
▁develops	-6485
▁categories	-6486
alls	-6487
▁regulate	-6488
inet	-6489
▁headache	-6490
▁percentile	-6491
▁aim	-6492
▁Scottish	-6493
▁centuries	-6494
▁club	-6495
▁Dom	-6496
▁hear	-6497
cessive	-6498
inating	-6499
igo	-6500
▁rapidly	-6501
▁Amendment	-6502
▁amend	-6503
▁membership	-6504
▁organelles	-6505
▁voice	-6506
▁gam	-6507
▁tile	-6508
OL	-6509
apter	-6510
▁honey	-6511
unc	-6512
zona	-6513
▁Dec	-6514
▁yard	-6515
▁mentioned	-6516
▁Tri	-6517
▁Next	-6518
▁homeown	-6519
▁discount	-6520
▁leader	-6521
outheast	-6522
▁treating	-6523
▁shot	-6524
▁deliver	-6525
▁sort	-6526
▁meant	-6527
ocolate	-6528
▁Greece	-6529
▁Government	-6530
▁cran	-6531
▁possibly	-6532
▁excessive	-6533
▁Press	-6534
ertain	-6535
▁Making	-6536
▁Sa	-6537
igram	-6538
▁dipl	-6539
▁fort	-6540
▁domain	-6541
▁(/	-6542
▁consume	-6543
▁prostate	-6544
▁speaking	-6545
elle	-6546
▁award	-6547
▁unknown	-6548
▁separated	-6549
▁Causes	-6550
▁scores	-6551
▁seal	-6552
▁rul	-6553
▁Hydro	-6554
▁electronic	-6555
osen	-6556
▁circulation	-6557
▁Jew	-6558
oration	-6559
▁cheaper	-6560
▁historical	-6561
▁lava	-6562
▁Pain	-6563
▁outd	-6564
▁Hawaii	-6565
▁leaving	-6566
▁combine	-6567
imming	-6568
estation	-6569
▁longest	-6570
▁familiar	-6571
▁inflammatory	-6572
▁spelling	-6573
eless	-6574
▁55	-6575
▁deck	-6576
estone	-6577
▁showing	-6578
▁chick	-6579
▁recovery	-6580
▁desc	-6581
▁saturated	-6582
▁territory	-6583
▁Down	-6584
▁usual	-6585
▁Images	-6586
▁prokary	-6587
▁Nurs	-6588
▁divide	-6589
▁synthetic	-6590
78	-6591
▁Mor	-6592
iasis	-6593
inity	-6594
▁extended	-6595
rian	-6596
▁Job	-6597
▁wish	-6598
ophyll	-6599
▁manner	-6600
▁Energy	-6601
car	-6602
▁Heart	-6603
▁blocks	-6604
▁peripheral	-6605
▁orbit	-6606
▁earning	-6607
▁foundation	-6608
▁Ver	-6609
▁patterns	-6610
▁practition	-6611
ylvan	-6612
▁rail	-6613
▁Valley	-6614
▁tendon	-6615
▁interior	-6616
▁principal	-6617
▁thickness	-6618
cyclop	-6619
uation	-6620
700	-6621
▁1.5	-6622
▁pus	-6623
phal	-6624
▁ank	-6625
aying	-6626
▁Rights	-6627
▁retain	-6628
▁harvest	-6629
▁fu	-6630
▁cyst	-6631
▁yogurt	-6632
aque	-6633
▁Amazon	-6634
prise	-6635
▁extent	-6636
▁Requ	-6637
▁2011,	-6638
▁attor	-6639
osystem	-6640
▁vast	-6641
carbon	-6642
▁Columbia	-6643
▁differ	-6644
▁techniques	-6645
▁advert	-6646
asia	-6647
▁sust	-6648
insula	-6649
▁deriv	-6650
iole	-6651
▁Nut	-6652
▁2012,	-6653
▁cloud	-6654
▁Chicago	-6655
▁cheap	-6656
▁Victor	-6657
swered	-6658
▁regularly	-6659
▁comprehens	-6660
▁zip	-6661
berry	-6662
▁giant	-6663
aks	-6664
▁helpful	-6665
▁secreted	-6666
▁Coast	-6667
▁plural	-6668
▁hundreds	-6669
▁Insurance	-6670
nsic	-6671
▁Prote	-6672
lines	-6673
▁generic	-6674
PC	-6675
ounce	-6676
▁conven	-6677
▁trib	-6678
▁meter	-6679
▁tight	-6680
▁injuries	-6681
▁33	-6682
iph	-6683
▁thr	-6684
▁Nav	-6685
▁2012.	-6686
▁Family	-6687
▁shingles	-6688
▁Cub	-6689
▁landsc	-6690
▁returns	-6691
▁absolute	-6692
▁cerebral	-6693
ij	-6694
acters	-6695
▁hotel	-6696
▁peace	-6697
▁modified	-6698
▁vertebra	-6699
▁grand	-6700
▁Angeles	-6701
gers	-6702
▁endocrine	-6703
oke	-6704
▁conv	-6705
▁constitution	-6706
fit	-6707
oves	-6708
▁App	-6709
yroidism	-6710
▁digital	-6711
▁teachers	-6712
▁conversion	-6713
▁daughter	-6714
rie	-6715
▁3-	-6716
▁cups	-6717
▁mand	-6718
▁Administration	-6719
ba	-6720
uted	-6721
▁Cre	-6722
▁fossil	-6723
▁Mexican	-6724
▁anesthes	-6725
cod	-6726
▁Bake	-6727
▁didn	-6728
elled	-6729
DF	-6730
▁sett	-6731
▁Search	-6732
▁intestines	-6733
EF	-6734
no	-6735
▁nasal	-6736
▁pharmac	-6737
▁189	-6738
▁20%	-6739
▁cram	-6740
heumatoid	-6741
▁fan	-6742
▁sentence	-6743
▁cycl	-6744
▁assum	-6745
▁gluten	-6746
▁Mountains	-6747
ropol	-6748
▁sole	-6749
▁manage	-6750
SD	-6751
ighter	-6752
▁quantity	-6753
pm	-6754
▁command	-6755
copic	-6756
▁keeping	-6757
▁rainfall	-6758
▁vascular	-6759
86	-6760
▁boiling	-6761
▁Mid	-6762
nsylvan	-6763
▁MRI	-6764
▁Sam	-6765
▁vel	-6766
istan	-6767
▁clim	-6768
▁gift	-6769
▁preparation	-6770
▁Bur	-6771
▁Tom	-6772
ersey	-6773
▁scar	-6774
▁dosage	-6775
try	-6776
alamus	-6777
writ	-6778
▁$14	-6779
▁agricult	-6780
▁lb	-6781
▁Swed	-6782
▁nurses	-6783
▁correspond	-6784
▁shaped	-6785
airs	-6786
▁Age	-6787
enter	-6788
▁superv	-6789
▁counsel	-6790
ventional	-6791
fe	-6792
esis	-6793
ogly	-6794
▁pil	-6795
▁bite	-6796
ateral	-6797
estinal	-6798
▁liability	-6799
▁heard	-6800
▁marked	-6801
▁Ul	-6802
▁zinc	-6803
▁Early	-6804
▁closer	-6805
▁Star	-6806
▁syrup	-6807
▁Corn	-6808
▁carbs	-6809
▁cattle	-6810
▁identity	-6811
▁injection	-6812
copy	-6813
erative	-6814
▁dollar	-6815
▁golden	-6816
▁horses	-6817
▁extends	-6818
▁celebr	-6819
▁boundary	-6820
▁automatically	-6821
▁department	-6822
▁mant	-6823
▁peas	-6824
▁persons	-6825
▁Colorado	-6826
▁solutions	-6827
▁Management	-6828
▁potentially	-6829
▁Special	-6830
ald	-6831
▁Example	-6832
▁wound	-6833
▁savings	-6834
▁emph	-6835
▁Senate	-6836
▁owners	-6837
▁Profess	-6838
▁classification	-6839
▁1-	-6840
▁Photo	-6841
▁Portug	-6842
▁enters	-6843
▁Christian	-6844
▁milligram	-6845
acic	-6846
▁ethnic	-6847
▁feeding	-6848
dL	-6849
cyclopedia	-6850
▁withdrawal	-6851
▁Arizona	-6852
▁shorter	-6853
▁100%	-6854
▁Oldest	-6855
▁contained	-6856
▁Div	-6857
▁Less	-6858
opathy	-6859
▁cards	-6860
▁intestinal	-6861
elly	-6862
ii	-6863
▁fa	-6864
rael	-6865
▁600	-6866
▁Normal	-6867
▁disability	-6868
.]	-6869
▁neurotransmit	-6870
aelic	-6871
▁Wall	-6872
▁Power	-6873
nsylvania	-6874
▁Expl	-6875
ashion	-6876
▁metres	-6877
▁surgeon	-6878
▁mph	-6879
▁voc	-6880
▁Small	-6881
▁capillaries	-6882
▁precipitation	-6883
▁fle	-6884
▁jew	-6885
erenn	-6886
illet	-6887
idelines	-6888
▁occasionally	-6889
▁Ma	-6890
▁rental	-6891
▁overtime	-6892
▁steaks	-6893
▁neutral	-6894
▁Dictionary	-6895
ansas	-6896
▁Term	-6897
▁potato	-6898
orie	-6899
▁Foods	-6900
▁caffe	-6901
▁du	-6902
asses	-6903
▁Soci	-6904
▁David	-6905
▁thinking	-6906
▁literature	-6907
Ch	-6908
▁Mont	-6909
▁synthes	-6910
lel	-6911
outs	-6912
▁(20	-6913
▁Arabic	-6914
▁stages	-6915
▁pages	-6916
▁spending	-6917
▁background	-6918
TM	-6919
▁brows	-6920
▁ber	-6921
▁intra	-6922
▁1/4	-6923
eline	-6924
isphere	-6925
▁server	-6926
▁Cho	-6927
orial	-6928
▁angle	-6929
▁compress	-6930
▁advantage	-6931
▁owned	-6932
▁fluids	-6933
nia	-6934
▁IP	-6935
▁Brazil	-6936
▁nutrient	-6937
▁businesses	-6938
ifier	-6939
rising	-6940
▁protective	-6941
▁employers	-6942
bladder	-6943
▁vehicles	-6944
▁chemistry	-6945
▁rack	-6946
▁funds	-6947
▁meats	-6948
▁Carbon	-6949
▁Turkey	-6950
▁stroke	-6951
bal	-6952
eling	-6953
arrant	-6954
erences	-6955
▁marrow	-6956
▁implement	-6957
▁characters	-6958
ME	-6959
ript	-6960
▁(1)	-6961
▁mood	-6962
▁Apple	-6963
▁download	-6964
▁greatest	-6965
▁emergency	-6966
▁ventricle	-6967
▁ana	-6968
▁bac	-6969
▁handle	-6970
▁input	-6971
▁exception	-6972
▁AL	-6973
▁turns	-6974
▁beauty	-6975
▁Science	-6976
▁Children	-6977
▁replication	-6978
▁38	-6979
▁RN	-6980
▁purple	-6981
▁resting	-6982
▁la	-6983
▁Control	-6984
▁Tor	-6985
▁commission	-6986
▁Fire	-6987
▁voltage	-6988
▁Dog	-6989
▁cel	-6990
iture	-6991
▁exhib	-6992
▁$5,000	-6993
▁Instead	-6994
▁actions	-6995
▁adopted	-6996
▁tablets	-6997
▁residential	-6998
▁goals	-6999
▁wheel	-7000
▁relief	-7001
▁technicians	-7002
▁DV	-7003
▁saw	-7004
▁Magn	-7005
cast	-7006
▁iod	-7007
▁affecting	-7008
sa	-7009
VERTI	-7010
▁models	-7011
▁roasting	-7012
▁basically	-7013
▁Hep	-7014
▁mucus	-7015
▁volcanoes	-7016
quare	-7017
▁Cover	-7018
▁Newest	-7019
▁circle	-7020
grade	-7021
ptide	-7022
hma	-7023
uing	-7024
box	-7025
▁Found	-7026
▁rivers	-7027
▁elected	-7028
46	-7029
▁Spr	-7030
▁nav	-7031
▁shallow	-7032
rons	-7033
▁neph	-7034
▁toler	-7035
VERTISE	-7036
▁garage	-7037
▁switch	-7038
▁organizations	-7039
▁160	-7040
inois	-7041
▁drinks	-7042
▁turning	-7043
▁frequent	-7044
▁destination	-7045
▁Pennsylvania	-7046
▁Art	-7047
▁evolution	-7048
enders	-7049
▁match	-7050
▁microwave	-7051
oar	-7052
rophy	-7053
▁authority	-7054
▁measuring	-7055
using	-7056
▁glyc	-7057
▁onion	-7058
▁esophagus	-7059
▁sheep	-7060
▁buying	-7061
▁crystals	-7062
VERTISEMENT	-7063
ellig	-7064
▁Diet	-7065
acco	-7066
▁atomic	-7067
▁definite	-7068
lysis	-7069
anda	-7070
▁demonst	-7071
▁cultures	-7072
ruit	-7073
▁onions	-7074
72	-7075
osterone	-7076
eria	-7077
▁5,	-7078
▁phenomen	-7079
resent	-7080
osphate	-7081
otherapy	-7082
▁selected	-7083
angl	-7084
onomic	-7085
▁bridge	-7086
▁football	-7087
▁brother	-7088
nee	-7089
▁Mult	-7090
▁vict	-7091
▁Often	-7092
▁ticket	-7093
▁ADVERTISEMENT	-7094
▁Native	-7095
▁rainfore	-7096
▁uncommon	-7097
▁Scotland	-7098
▁regardless	-7099
icated	-7100
▁beats	-7101
▁dates	-7102
▁salts	-7103
-$1	-7104
▁vapor	-7105
IA	-7106
▁ID	-7107
▁schedule	-7108
chy	-7109
▁fo	-7110
▁obvious	-7111
▁poisoning	-7112
▁practices	-7113
▁sensitive	-7114
berg	-7115
quit	-7116
anine	-7117
▁centre	-7118
▁perhaps	-7119
▁driveway	-7120
▁Three	-7121
▁Charles	-7122
▁$40	-7123
▁Russian	-7124
▁painting	-7125
▁selection	-7126
rant	-7127
upus	-7128
▁cuis	-7129
▁Current	-7130
▁Ok	-7131
▁compr	-7132
oric	-7133
▁codes	-7134
▁plenty	-7135
▁involving	-7136
▁previously	-7137
▁spots	-7138
▁receiving	-7139
▁Disease	-7140
▁requirement	-7141
▁Ohio	-7142
▁Whether	-7143
rose	-7144
▁wife	-7145
',	-7146
FL	-7147
▁ideas	-7148
▁extend	-7149
38	-7150
CD	-7151
-12	-7152
lers	-7153
regon	-7154
▁exceed	-7155
▁confused	-7156
intestinal	-7157
▁interesting	-7158
▁Ext	-7159
▁caffeine	-7160
▁connects	-7161
▁Ec	-7162
▁pros	-7163
▁latest	-7164
▁consumer	-7165
onucle	-7166
▁Muscle	-7167
▁pictures	-7168
▁reduction	-7169
ception	-7170
▁Corpor	-7171
▁selling	-7172
▁Bo	-7173
▁Thomas	-7174
▁bottle	-7175
▁continental	-7176
▁Fun	-7177
▁undergraduate	-7178
eous	-7179
▁mol	-7180
▁appet	-7181
▁parties	-7182
▁religious	-7183
▁criminal	-7184
anth	-7185
▁shared	-7186
▁Figure	-7187
▁deposits	-7188
▁Rome	-7189
▁turned	-7190
▁chocolate	-7191
▁pays	-7192
▁soda	-7193
▁rises	-7194
▁satell	-7195
ograp	-7196
▁Book	-7197
ipolar	-7198
inflamm	-7199
▁Michigan	-7200
ube	-7201
itic	-7202
▁brief	-7203
▁Jersey	-7204
▁Summary	-7205
▁Medicine	-7206
▁manufacturer	-7207
▁Put	-7208
▁password	-7209
▁protects	-7210
▁CT	-7211
▁police	-7212
▁surrounded	-7213
▁las	-7214
▁econom	-7215
standing	-7216
▁skillet	-7217
icot	-7218
lock	-7219
ocratic	-7220
▁contracts	-7221
▁assistants	-7222
▁registration	-7223
▁37	-7224
fast	-7225
▁gave	-7226
▁apple	-7227
▁therapist	-7228
onut	-7229
iples	-7230
rations	-7231
▁tendons	-7232
▁clothing	-7233
▁boundaries	-7234
▁Att	-7235
▁Carib	-7236
▁flights	-7237
add	-7238
burg	-7239
iler	-7240
▁Occ	-7241
chlor	-7242
▁Area	-7243
▁cutting	-7244
▁literally	-7245
▁milligrams	-7246
upiter	-7247
▁2014.	-7248
▁perenn	-7249
brid	-7250
▁joined	-7251
angle	-7252
▁Look	-7253
oultry	-7254
▁SI	-7255
idal	-7256
▁Sand	-7257
▁interested	-7258
▁mitochondria	-7259
▁reproductive	-7260
▁9.	-7261
asks	-7262
▁planets	-7263
CT	-7264
▁Public	-7265
▁compos	-7266
▁classic	-7267
▁expressed	-7268
▁les	-7269
▁join	-7270
▁religion	-7271
▁substant	-7272
rd	-7273
type	-7274
▁Clin	-7275
▁cogn	-7276
▁Syn	-7277
▁Cast	-7278
role	-7279
▁Dig	-7280
▁pulse	-7281
anium	-7282
▁Mill	-7283
▁chains	-7284
▁District	-7285
▁Cr	-7286
▁Army	-7287
▁calls	-7288
▁windows	-7289
▁Institute	-7290
▁IT	-7291
▁Saf	-7292
▁stems	-7293
▁microorgan	-7294
▁Map	-7295
▁Moon	-7296
▁millions	-7297
▁spectrum	-7298
▁qualified	-7299
urb	-7300
▁ket	-7301
etime	-7302
▁aorta	-7303
▁polic	-7304
issance	-7305
▁manufactured	-7306
enic	-7307
plete	-7308
▁arom	-7309
estion	-7310
▁HR	-7311
▁visa	-7312
▁lobe	-7313
▁seiz	-7314
▁Benef	-7315
duce	-7316
well	-7317
▁empt	-7318
▁CP	-7319
▁basket	-7320
anna	-7321
▁mang	-7322
▁Table	-7323
unately	-7324
▁suitable	-7325
▁administration	-7326
ethyl	-7327
▁wrote	-7328
▁powers	-7329
▁entirely	-7330
▁mos	-7331
▁eyel	-7332
▁advice	-7333
▁hydrox	-7334
▁neighbor	-7335
▁rig	-7336
▁default	-7337
Sc	-7338
acc	-7339
isk	-7340
▁Empire	-7341
▁transcription	-7342
taining	-7343
▁aspects	-7344
▁announced	-7345
ala	-7346
▁2013.	-7347
▁Offic	-7348
▁promote	-7349
ercury	-7350
▁Related	-7351
▁reducing	-7352
atto	-7353
▁2,000	-7354
▁advance	-7355
SI	-7356
▁consumed	-7357
▁ligament	-7358
▁gallbladder	-7359
▁tubes	-7360
▁haz	-7361
astes	-7362
▁satis	-7363
▁Mountain	-7364
band	-7365
seud	-7366
▁gem	-7367
▁Grand	-7368
▁snake	-7369
▁ow	-7370
inkle	-7371
pies	-7372
▁catch	-7373
▁illust	-7374
49	-7375
▁cure	-7376
▁crime	-7377
▁corner	-7378
inea	-7379
ords	-7380
▁$2,000	-7381
▁permit	-7382
▁wanted	-7383
▁Illinois	-7384
stances	-7385
▁string	-7386
▁removing	-7387
▁CE	-7388
▁Mat	-7389
▁urban	-7390
▁Indones	-7391
▁holiday	-7392
amic	-7393
▁Types	-7394
▁applies	-7395
ucc	-7396
▁Ig	-7397
▁managers	-7398
tee	-7399
▁Imm	-7400
▁geograph	-7401
gree	-7402
▁$16	-7403
▁Data	-7404
▁Paris	-7405
▁trial	-7406
sec	-7407
▁Sn	-7408
▁profile	-7409
▁functioning	-7410
▁$3,	-7411
▁Spe	-7412
▁magma	-7413
▁puppy	-7414
apse	-7415
▁$13	-7416
▁mutations	-7417
bo	-7418
▁finished	-7419
zed	-7420
▁Mail	-7421
▁achie	-7422
▁plane	-7423
ructure	-7424
▁instrum	-7425
▁diagnosed	-7426
48	-7427
UR	-7428
▁poet	-7429
▁Treaty	-7430
▁reflex	-7431
▁Treatment	-7432
warf	-7433
HA	-7434
▁predom	-7435
▁reduces	-7436
▁jump	-7437
▁Oregon	-7438
▁Robert	-7439
▁antigen	-7440
▁nutritional	-7441
▁Hard	-7442
▁recipes	-7443
▁messages	-7444
▁heter	-7445
▁gallons	-7446
▁routine	-7447
▁village	-7448
▁lie	-7449
▁Alex	-7450
▁metamorph	-7451
ador	-7452
▁$18	-7453
▁bigger	-7454
▁moment	-7455
▁walking	-7456
that	-7457
▁Asian	-7458
▁alpha	-7459
▁fewer	-7460
aya	-7461
berries	-7462
▁Follow	-7463
▁cataly	-7464
▁zero	-7465
▁actor	-7466
▁zones	-7467
▁Francisco	-7468
MO	-7469
▁bene	-7470
▁allele	-7471
ori	-7472
▁Roy	-7473
▁lin	-7474
oston	-7475
▁thym	-7476
▁accident	-7477
▁annum	-7478
▁buildings	-7479
uris	-7480
ostic	-7481
▁Major	-7482
▁lists	-7483
▁Prince	-7484
▁flexible	-7485
▁hole	-7486
▁swollen	-7487
gg	-7488
▁af	-7489
eper	-7490
▁lease	-7491
omatic	-7492
rowing	-7493
▁]	-7494
edit	-7495
▁(10	-7496
liament	-7497
▁gal	-7498
▁obl	-7499
▁Iron	-7500
▁Israel	-7501
▁restrict	-7502
▁instit	-7503
piration	-7504
▁sufficient	-7505
ml	-7506
pox	-7507
illes	-7508
velength	-7509
▁coronary	-7510
▁10.	-7511
phalt	-7512
▁dust	-7513
▁deduction	-7514
%).	-7515
▁esc	-7516
riers	-7517
▁ears	-7518
▁kingdom	-7519
going	-7520
worms	-7521
▁agree	-7522
▁researc	-7523
▁thousand	-7524
itud	-7525
▁sharp	-7526
▁generate	-7527
▁hyd	-7528
▁Jupiter	-7529
▁relieve	-7530
▁district	-7531
▁Hindu	-7532
▁Women	-7533
▁Infect	-7534
▁stretch	-7535
▁association	-7536
▁Four	-7537
▁diverse	-7538
iaz	-7539
▁hus	-7540
▁span	-7541
▁Henry	-7542
▁ultras	-7543
ogens	-7544
▁hope	-7545
▁1:	-7546
▁Pur	-7547
▁Rest	-7548
▁transmit	-7549
▁corporation	-7550
wall	-7551
▁fal	-7552
▁protected	-7553
▁nucleotides	-7554
itions	-7555
▁pasta	-7556
▁Gaelic	-7557
▁centers	-7558
▁operate	-7559
▁sedimentary	-7560
▁IS	-7561
▁carrier	-7562
▁consumers	-7563
erk	-7564
emon	-7565
pection	-7566
bi	-7567
cher	-7568
appro	-7569
aturated	-7570
▁clients	-7571
▁epiderm	-7572
▁nom	-7573
regular	-7574
▁quartz	-7575
▁specialty	-7576
▁Save	-7577
An	-7578
▁Frank	-7579
TA	-7580
▁Oper	-7581
▁leuk	-7582
▁sections	-7583
▁$75	-7584
▁por	-7585
▁aged	-7586
▁herbs	-7587
▁equator	-7588
▁reproduction	-7589
kg	-7590
▁mode	-7591
▁Regist	-7592
▁closest	-7593
▁province	-7594
▁hospitals	-7595
▁Land	-7596
▁banks	-7597
▁lawn	-7598
▁freeze	-7599
▁engineer	-7600
▁technical	-7601
▁decay	-7602
▁epithelium	-7603
CP	-7604
▁bonus	-7605
▁ecosystem	-7606
UN	-7607
str	-7608
▁pun	-7609
▁Max	-7610
▁Coll	-7611
▁duties	-7612
▁playing	-7613
▁aircraft	-7614
▁2.5	-7615
▁Jos	-7616
itter	-7617
▁Last	-7618
oxyrib	-7619
37	-7620
▁horn	-7621
Americ	-7622
▁fence	-7623
▁cooling	-7624
rin	-7625
oler	-7626
▁baked	-7627
▁sever	-7628
pective	-7629
loin	-7630
iceps	-7631
▁Call	-7632
▁Town	-7633
▁Viet	-7634
Get	-7635
▁suc	-7636
▁2-	-7637
▁flooring	-7638
▁gradually	-7639
edom	-7640
rots	-7641
eness	-7642
▁2007	-7643
▁Mart	-7644
▁lake	-7645
▁nice	-7646
▁franch	-7647
▁holding	-7648
cm	-7649
▁crown	-7650
▁revenue	-7651
▁dissolved	-7652
under	-7653
▁Names	-7654
▁chops	-7655
▁tells	-7656
▁expert	-7657
▁diagnose	-7658
vin	-7659
onyms	-7660
▁prey	-7661
▁shoot	-7662
▁binding	-7663
▁fingers	-7664
▁igneous	-7665
▁restaurant	-7666
▁encyclopedia	-7667
96	-7668
▁decor	-7669
▁Street	-7670
atever	-7671
▁importance	-7672
idae	-7673
ulose	-7674
▁scal	-7675
oln	-7676
irds	-7677
▁director	-7678
Un	-7679
▁antibiotic	-7680
▁transportation	-7681
opes	-7682
▁Fem	-7683
▁plug	-7684
▁drops	-7685
▁complications	-7686
keys	-7687
sters	-7688
▁dictionary	-7689
olk	-7690
ilia	-7691
▁truck	-7692
▁essentially	-7693
▁tape	-7694
▁wings	-7695
▁copies	-7696
▁stated	-7697
▁emotional	-7698
▁lymphatic	-7699
▁necessarily	-7700
orms	-7701
▁trait	-7702
▁gender	-7703
▁houses	-7704
▁intense	-7705
▁Wood	-7706
▁Brown	-7707
▁fuels	-7708
isation	-7709
▁carpet	-7710
ocity	-7711
▁Rate	-7712
roleum	-7713
▁colored	-7714
▁equation	-7715
▁engineers	-7716
▁bulb	-7717
▁Inf	-7718
juana	-7719
rises	-7720
ologic	-7721
abilities	-7722
anes	-7723
ours	-7724
inson	-7725
▁jewel	-7726
▁applying	-7727
▁2-3	-7728
▁League	-7729
▁drivers	-7730
▁sharing	-7731
▁prevents	-7732
▁beneficial	-7733
teen	-7734
ronym	-7735
▁mechanism	-7736
▁Noun	-7737
▁subt	-7738
▁tends	-7739
western	-7740
▁beneath	-7741
▁listing	-7742
▁officially	-7743
/20	-7744
▁sensation	-7745
▁Opt	-7746
sized	-7747
▁boost	-7748
▁Caribbean	-7749
ano	-7750
▁Paul	-7751
▁nail	-7752
▁thaw	-7753
ductor	-7754
▁roles	-7755
▁route	-7756
▁meeting	-7757
▁nort	-7758
▁2010,	-7759
▁tested	-7760
ropolitan	-7761
▁MS	-7762
▁centim	-7763
▁Ancient	-7764
▁explore	-7765
▁85	-7766
▁tob	-7767
▁Sant	-7768
ructose	-7769
▁variations	-7770
▁Dev	-7771
▁vul	-7772
▁benz	-7773
otroph	-7774
▁Train	-7775
▁acquired	-7776
▁appeared	-7777
▁AS	-7778
▁poultry	-7779
▁attorney	-7780
▁duration	-7781
▁register	-7782
▁represented	-7783
PN	-7784
▁pip	-7785
rence	-7786
▁Desert	-7787
▁finding	-7788
ovascular	-7789
▁breeding	-7790
▁regarding	-7791
FC	-7792
ila	-7793
azine	-7794
0,000.	-7795
▁tough	-7796
▁traits	-7797
▁worker	-7798
▁ultrasound	-7799
▁Mix	-7800
▁Try	-7801
▁Camp	-7802
▁bean	-7803
▁distributed	-7804
▁Rev	-7805
▁mantle	-7806
▁].	-7807
opath	-7808
▁crops	-7809
▁polymerase	-7810
▁Wales	-7811
▁pancreat	-7812
▁ligaments	-7813
ih	-7814
asant	-7815
▁shower	-7816
▁weekly	-7817
▁Process	-7818
▁concerned	-7819
olia	-7820
▁tal	-7821
verte	-7822
oarthritis	-7823
▁ingest	-7824
▁warrant	-7825
▁;	-7826
yles	-7827
uster	-7828
▁entit	-7829
▁Market	-7830
▁metall	-7831
▁fashion	-7832
▁terminal	-7833
▁fermentation	-7834
incoln	-7835
▁vertical	-7836
ami	-7837
acent	-7838
ading	-7839
▁Guide	-7840
▁notes	-7841
▁sinus	-7842
▁partial	-7843
OW	-7844
▁shock	-7845
▁shapes	-7846
▁symbols	-7847
▁34	-7848
erly	-7849
▁dur	-7850
▁Nucle	-7851
▁policies	-7852
ditionally	-7853
9%	-7854
▁Kh	-7855
▁coli	-7856
▁acidic	-7857
▁IV	-7858
plate	-7859
▁earliest	-7860
▁Rena	-7861
▁expand	-7862
▁cancers	-7863
▁parallel	-7864
▁industries	-7865
▁cro	-7866
aphyl	-7867
▁Boston	-7868
▁earthqu	-7869
▁constipation	-7870
ags	-7871
pus	-7872
▁clay	-7873
▁Berlin	-7874
▁situations	-7875
▁beat	-7876
▁effort	-7877
▁kilogram	-7878
▁institution	-7879
▁$3.	-7880
asive	-7881
azing	-7882
▁Period	-7883
▁Natural	-7884
▁resistant	-7885
hol	-7886
▁marriage	-7887
▁strat	-7888
▁examination	-7889
▁belt	-7890
▁Calcul	-7891
▁barrier	-7892
▁Community	-7893
▁specified	-7894
rey	-7895
▁6,	-7896
omers	-7897
ificial	-7898
▁crystall	-7899
▁allergies	-7900
tail	-7901
apore	-7902
▁Light	-7903
▁Season	-7904
▁behavi	-7905
▁Develop	-7906
▁Based	-7907
▁matrix	-7908
▁Remember	-7909
▁continues	-7910
▁temporary	-7911
ibrary	-7912
▁Point	-7913
▁juices	-7914
▁passing	-7915
MD	-7916
▁senior	-7917
▁Michael	-7918
▁5-	-7919
▁helping	-7920
iences	-7921
oxic	-7922
rost	-7923
▁entity	-7924
▁cervical	-7925
▁corporate	-7926
bar	-7927
anas	-7928
orce	-7929
▁lib	-7930
▁observed	-7931
▁supports	-7932
▁temperate	-7933
verages	-7934
▁noted	-7935
▁rhyth	-7936
▁recessive	-7937
tles	-7938
▁Gall	-7939
▁singer	-7940
▁antibody	-7941
Getty	-7942
▁swall	-7943
▁reality	-7944
▁determines	-7945
▁72	-7946
ucks	-7947
ulus	-7948
leen	-7949
▁Dire	-7950
▁dough	-7951
▁plain	-7952
▁pollen	-7953
▁transplant	-7954
▁era	-7955
▁imag	-7956
estyle	-7957
▁itching	-7958
▁releases	-7959
▁1)	-7960
illing	-7961
inates	-7962
▁subsequ	-7963
▁practical	-7964
▁presented	-7965
English	-7966
▁Hepatitis	-7967
oving	-7968
▁closing	-7969
▁biome	-7970
▁brush	-7971
▁Assistant	-7972
▁wavelength	-7973
▁CH	-7974
lete	-7975
romb	-7976
umbs	-7977
▁dors	-7978
▁smoke	-7979
▁determining	-7980
card	-7981
▁doub	-7982
▁ille	-7983
▁bands	-7984
▁Society	-7985
▁session	-7986
▁Na	-7987
▁Certified	-7988
ugar	-7989
▁Fat	-7990
▁Gulf	-7991
▁Pharm	-7992
mat	-7993
▁Glob	-7994
▁peel	-7995
teries	-7996
▁ammon	-7997
▁resource	-7998
▁pin	-7999
▁Beach	-8000
▁ceiling	-8001
▁consequ	-8002
▁standing	-8003
lee	-8004
endar	-8005
▁unable	-8006
▁Several	-8007
▁traditionally	-8008
road	-8009
▁amb	-8010
▁jaw	-8011
ashes	-8012
idden	-8013
osomal	-8014
▁hire	-8015
▁keeps	-8016
▁traffic	-8017
▁wireless	-8018
▁buff	-8019
iveness	-8020
▁orth	-8021
itness	-8022
▁scler	-8023
▁spices	-8024
▁housing	-8025
▁inferior	-8026
▁blend	-8027
arijuana	-8028
IL	-8029
mond	-8030
▁sylls	-8031
▁battle	-8032
▁encoura	-8033
▁basement	-8034
PD	-8035
greg	-8036
▁Dri	-8037
ously	-8038
▁optic	-8039
▁carrying	-8040
▁pu	-8041
▁Bor	-8042
▁sap	-8043
hemat	-8044
▁Gluc	-8045
▁prison	-8046
etically	-8047
▁generated	-8048
▁kilometres	-8049
▁Pap	-8050
▁pale	-8051
burn	-8052
cost	-8053
▁192	-8054
▁artist	-8055
▁pricing	-8056
archy	-8057
▁Hyper	-8058
spec	-8059
▁Big	-8060
▁Dam	-8061
▁oct	-8062
comfort	-8063
▁reserv	-8064
▁experts	-8065
▁protocol	-8066
▁$35	-8067
andom	-8068
ulating	-8069
▁Salmon	-8070
▁allergy	-8071
how	-8072
mas	-8073
,500.	-8074
▁sink	-8075
atus	-8076
▁cas	-8077
▁cuts	-8078
▁hall	-8079
▁sport	-8080
▁Nursing	-8081
oden	-8082
▁90%	-8083
arians	-8084
▁Lincoln	-8085
▁organized	-8086
▁regulation	-8087
▁(8	-8088
ette	-8089
▁coastal	-8090
▁urethra	-8091
▁officers	-8092
▁contaminated	-8093
▁comprehensive	-8094
73	-8095
▁lock	-8096
▁degen	-8097
▁Plants	-8098
▁thread	-8099
▁Similar	-8100
▁somewhere	-8101
roid	-8102
▁Wal	-8103
akers	-8104
employ	-8105
▁loans	-8106
▁independence	-8107
▁expense	-8108
▁mission	-8109
▁ovulation	-8110
▁distinctive	-8111
mail	-8112
ologies	-8113
▁PA	-8114
▁Bal	-8115
▁saliva	-8116
▁occurred	-8117
bing	-8118
▁mas	-8119
▁soap	-8120
▁lupus	-8121
▁ore	-8122
▁interf	-8123
▁strict	-8124
▁neurolog	-8125
itage	-8126
▁Proper	-8127
▁42	-8128
▁accompan	-8129
▁$60	-8130
▁Hall	-8131
▁Body	-8132
▁cuisine	-8133
▁regional	-8134
▁educational	-8135
MR	-8136
▁Rob	-8137
▁diss	-8138
agnetic	-8139
▁iodine	-8140
▁resemb	-8141
▁vaginal	-8142
▁varying	-8143
arts	-8144
asure	-8145
▁Head	-8146
ports	-8147
▁purs	-8148
▁implant	-8149
▁difficulty	-8150
leg	-8151
illin	-8152
▁wants	-8153
▁restaurants	-8154
yal	-8155
then	-8156
▁boat	-8157
▁temp	-8158
unciation	-8159
▁proposed	-8160
▁epithelial	-8161
2)	-8162
oured	-8163
▁Pract	-8164
▁granite	-8165
▁proof	-8166
▁thicken	-8167
namic	-8168
▁tort	-8169
ilding	-8170
▁trunk	-8171
▁severity	-8172
▁identical	-8173
MT	-8174
▁recover	-8175
accharides	-8176
▁conventional	-8177
▁quad	-8178
▁Price	-8179
▁mosquit	-8180
▁offering	-8181
▁ounce	-8182
▁indirect	-8183
fly	-8184
▁Bon	-8185
▁worse	-8186
▁circumstances	-8187
ayed	-8188
▁wash	-8189
▁Welcome	-8190
▁tobacco	-8191
ibilities	-8192
▁cyl	-8193
▁investig	-8194
-15	-8195
▁thoracic	-8196
EP	-8197
pret	-8198
▁Angl	-8199
iolet	-8200
▁nucleotide	-8201
▁seek	-8202
▁aer	-8203
adium	-8204
▁Show	-8205
ibl	-8206
cler	-8207
pine	-8208
▁Johns	-8209
▁frost	-8210
▁concern	-8211
▁periodic	-8212
▁lifes	-8213
amous	-8214
ounter	-8215
▁attribut	-8216
▁vertebrae	-8217
heim	-8218
high	-8219
▁Rub	-8220
50,	-8221
lym	-8222
body	-8223
eric	-8224
▁killed	-8225
▁coconut	-8226
IG	-8227
▁duty	-8228
▁worms	-8229
▁Adv	-8230
isted	-8231
▁decades	-8232
▁discover	-8233
▁freezing	-8234
win	-8235
embly	-8236
▁adds	-8237
mental	-8238
▁Popular	-8239
▁horizon	-8240
▁musical	-8241
▁Renaissance	-8242
▁architecture	-8243
▁tot	-8244
proof	-8245
▁hence	-8246
▁divers	-8247
▁directed	-8248
▁irregular	-8249
▁rheumatoid	-8250
pa	-8251
▁phylum	-8252
▁Tuition	-8253
▁trigger	-8254
-19	-8255
▁priv	-8256
▁tuber	-8257
▁bought	-8258
▁swimming	-8259
▁versions	-8260
▁referring	-8261
lla	-8262
▁Pric	-8263
▁flowering	-8264
▁Ly	-8265
iano	-8266
▁folder	-8267
function	-8268
▁Chemical	-8269
▁140	-8270
erson	-8271
soluble	-8272
▁nearby	-8273
▁browser	-8274
▁colonies	-8275
▁intermed	-8276
▁guidelines	-8277
aka	-8278
▁Prim	-8279
▁accommod	-8280
▁saus	-8281
▁Kent	-8282
arters	-8283
gative	-8284
▁alter	-8285
▁Choose	-8286
▁Review	-8287
▁sulfur	-8288
▁opposed	-8289
▁opportun	-8290
▁institutions	-8291
64	-8292
▁discomfort	-8293
▁maintaining	-8294
mega	-8295
▁fed	-8296
▁nails	-8297
inction	-8298
cellular	-8299
▁repeated	-8300
▁Different	-8301
▁task	-8302
▁preferred	-8303
▁File	-8304
▁Road	-8305
▁benign	-8306
▁edible	-8307
▁wealth	-8308
hi	-8309
agle	-8310
▁2015,	-8311
▁strands	-8312
▁Str	-8313
▁Year	-8314
▁decisions	-8315
▁discharge	-8316
▁TO	-8317
▁Ur	-8318
aign	-8319
ceans	-8320
▁lift	-8321
▁pediatric	-8322
CC	-8323
▁lime	-8324
▁pill	-8325
▁ducts	-8326
▁accompl	-8327
▁capsule	-8328
31	-8329
▁10,	-8330
▁Custom	-8331
▁asthma	-8332
▁toxins	-8333
▁decided	-8334
IF	-8335
auc	-8336
▁Key	-8337
▁secure	-8338
▁lifetime	-8339
▁THE	-8340
▁1980	-8341
▁Drug	-8342
▁tomatoes	-8343
▁fet	-8344
▁1960	-8345
▁Roast	-8346
▁abuse	-8347
▁tasks	-8348
▁Financial	-8349
▁satellite	-8350
▁predominant	-8351
▁negot	-8352
▁immunity	-8353
oidal	-8354
▁myel	-8355
▁rabbit	-8356
▁Without	-8357
▁0.5	-8358
tension	-8359
▁Scient	-8360
▁weighs	-8361
▁radioactive	-8362
aine	-8363
itivity	-8364
▁Church	-8365
▁impulses	-8366
▁perennial	-8367
owers	-8368
▁Mars	-8369
ustion	-8370
ropical	-8371
ugh	-8372
▁Ol	-8373
▁Cand	-8374
▁studied	-8375
▁Sund	-8376
▁cement	-8377
▁underst	-8378
▁sentences	-8379
▁USD	-8380
product	-8381
▁travels	-8382
▁Commission	-8383
▁lapt	-8384
akespe	-8385
▁flesh	-8386
▁Altern	-8387
▁coating	-8388
▁ordered	-8389
▁crem	-8390
▁offices	-8391
▁acres	-8392
▁curve	-8393
amental	-8394
▁Singapore	-8395
▁transferred	-8396
▁administrative	-8397
▁Pu	-8398
▁185	-8399
▁instruments	-8400
900	-8401
heric	-8402
rying	-8403
▁push	-8404
▁toile	-8405
▁fraction	-8406
▁NA	-8407
▁(18	-8408
▁beach	-8409
▁bench	-8410
▁opportunity	-8411
agu	-8412
omat	-8413
▁manif	-8414
▁experiences	-8415
▁FDA	-8416
▁tro	-8417
▁butt	-8418
▁Income	-8419
▁challeng	-8420
▁forensic	-8421
▁bio	-8422
▁Real	-8423
otonin	-8424
heastern	-8425
▁Within	-8426
▁brands	-8427
▁hotels	-8428
▁confirm	-8429
▁transaction	-8430
itt	-8431
▁Ent	-8432
illary	-8433
▁Party	-8434
▁Venus	-8435
▁trache	-8436
▁relevant	-8437
%,	-8438
▁4-	-8439
▁Po	-8440
▁yards	-8441
▁overnight	-8442
▁geographical	-8443
AA	-8444
▁800	-8445
▁fork	-8446
iments	-8447
izziness	-8448
▁homeowners	-8449
▁effectively	-8450
▁Rom	-8451
▁upload	-8452
▁eld	-8453
lywood	-8454
▁wrist	-8455
▁Product	-8456
▁appetite	-8457
▁multiply	-8458
▁www	-8459
▁lean	-8460
▁bears	-8461
▁inhabit	-8462
▁indicated	-8463
▁triglycer	-8464
useum	-8465
▁1970	-8466
▁Solar	-8467
▁flood	-8468
▁instant	-8469
▁secretion	-8470
racy	-8471
▁flo	-8472
▁prox	-8473
▁chosen	-8474
▁Council	-8475
▁comfortable	-8476
▁morph	-8477
pression	-8478
▁strategy	-8479
▁teaching	-8480
▁Ev	-8481
▁draft	-8482
▁fifth	-8483
akespeare	-8484
▁cust	-8485
▁intellig	-8486
▁shipping	-8487
amber	-8488
▁Yellow	-8489
▁hypothalamus	-8490
gov	-8491
just	-8492
▁asphalt	-8493
▁nations	-8494
▁newborn	-8495
▁reaching	-8496
▁complement	-8497
▁46	-8498
▁Jo	-8499
▁Transfer	-8500
▁arranged	-8501
▁transition	-8502
ifer	-8503
hydro	-8504
▁equals	-8505
▁leather	-8506
▁Jul	-8507
pected	-8508
▁Level	-8509
▁ankle	-8510
pathetic	-8511
▁chloropl	-8512
▁translation	-8513
▁Hyp	-8514
▁Norm	-8515
▁Among	-8516
▁peppers	-8517
▁deer	-8518
▁Artic	-8519
▁union	-8520
▁Lyme	-8521
▁evolved	-8522
▁fibrous	-8523
▁strains	-8524
▁thorough	-8525
▁elevation	-8526
▁meningitis	-8527
▁occupation	-8528
▁disp	-8529
▁clearly	-8530
▁entered	-8531
.”.	-8532
20,	-8533
asy	-8534
▁Las	-8535
icing	-8536
▁slab	-8537
▁grape	-8538
▁explains	-8539
71	-8540
niv	-8541
▁Ast	-8542
▁Ros	-8543
▁Gran	-8544
▁bund	-8545
redited	-8546
▁trauma	-8547
American	-8548
▁continued	-8549
▁microorganisms	-8550
riend	-8551
▁lith	-8552
▁178	-8553
▁Java	-8554
▁turb	-8555
▁adequ	-8556
▁fracture	-8557
91	-8558
▁15,	-8559
▁grew	-8560
▁carot	-8561
▁thumb	-8562
▁Function	-8563
▁Independ	-8564
▁alternate	-8565
inflammatory	-8566
amps	-8567
▁bull	-8568
▁principles	-8569
42	-8570
▁Lee	-8571
▁jack	-8572
▁Adult	-8573
▁skull	-8574
ospheric	-8575
▁geographic	-8576
▁lipids	-8577
▁taxable	-8578
▁relating	-8579
▁childhood	-8580
erman	-8581
month	-8582
▁elbow	-8583
▁tatto	-8584
abled	-8585
osome	-8586
▁opin	-8587
▁Effect	-8588
language	-8589
▁semester	-8590
▁efficiency	-8591
▁environments	-8592
ati	-8593
▁Due	-8594
▁Much	-8595
▁cake	-8596
▁disk	-8597
▁fault	-8598
▁interaction	-8599
zes	-8600
herlands	-8601
▁parasites	-8602
▁tor	-8603
▁Kore	-8604
▁melan	-8605
oplasmic	-8606
▁interface	-8607
▁providers	-8608
gon	-8609
▁2:	-8610
anus	-8611
▁News	-8612
parent	-8613
▁lifestyle	-8614
▁Cut	-8615
▁ker	-8616
uable	-8617
▁lipid	-8618
▁detected	-8619
una	-8620
▁Mo	-8621
▁snakes	-8622
▁towns	-8623
▁transf	-8624
▁everyday	-8625
▁stronger	-8626
▁decreases	-8627
▁Appro	-8628
▁append	-8629
▁Egyptian	-8630
▁administered	-8631
bes	-8632
▁teams	-8633
▁tomato	-8634
▁feather	-8635
▁communities	-8636
▁(2)	-8637
▁Ont	-8638
▁mRNA	-8639
ecutive	-8640
▁himself	-8641
▁averaged	-8642
amel	-8643
▁Oil	-8644
▁dol	-8645
▁2011.	-8646
▁lamin	-8647
hist	-8648
▁ran	-8649
ivary	-8650
▁Range	-8651
▁ulcer	-8652
▁fungal	-8653
▁jewelry	-8654
▁reticul	-8655
▁lifespan	-8656
▁velocity	-8657
made	-8658
▁filt	-8659
▁talking	-8660
▁teaspoon	-8661
▁Wil	-8662
rowth	-8663
umbar	-8664
ements	-8665
▁Doctor	-8666
▁seller	-8667
▁absence	-8668
▁Familiar	-8669
▁amendment	-8670
▁creation	-8671
▁settlement	-8672
▁ˈ	-8673
▁OF	-8674
alog	-8675
rape	-8676
▁Gard	-8677
▁Mean	-8678
▁pyram	-8679
▁$1,500	-8680
▁channel	-8681
▁credits	-8682
▁Comb	-8683
▁relationships	-8684
ima	-8685
▁8,	-8686
▁(2000	-8687
oved	-8688
atively	-8689
▁calendar	-8690
▁circulatory	-8691
pread	-8692
▁populations	-8693
Ph	-8694
ocyte	-8695
▁Nile	-8696
▁Master	-8697
▁Chicken	-8698
clusion	-8699
▁nucleic	-8700
▁conducted	-8701
▁researchers	-8702
▁Lip	-8703
▁illegal	-8704
▁pension	-8705
▁reverse	-8706
▁thermal	-8707
7%	-8708
▁Cir	-8709
▁Dry	-8710
▁Run	-8711
▁precise	-8712
▁replacing	-8713
oen	-8714
▁rou	-8715
ayers	-8716
illus	-8717
▁trim	-8718
bec	-8719
▁Ut	-8720
▁Vers	-8721
▁spouse	-8722
▁passage	-8723
▁Such	-8724
▁crystal	-8725
PH	-8726
▁aw	-8727
▁icon	-8728
▁Dental	-8729
▁fir	-8730
▁1990	-8731
▁axis	-8732
▁buyer	-8733
▁Indust	-8734
▁trained	-8735
she	-8736
innam	-8737
lyn	-8738
▁7,	-8739
arest	-8740
▁empty	-8741
▁irritation	-8742
▁Weather	-8743
▁Wild	-8744
▁2010.	-8745
▁Annual	-8746
▁fishing	-8747
▁anaerobic	-8748
EM	-8749
fu	-8750
▁AB	-8751
▁stays	-8752
▁10,000	-8753
▁Nations	-8754
▁filling	-8755
bage	-8756
▁Peru	-8757
▁conflic	-8758
▁MA	-8759
▁machines	-8760
▁holes	-8761
▁recur	-8762
▁snack	-8763
▁Answers	-8764
▁filed	-8765
▁onset	-8766
▁Contact	-8767
▁freshwater	-8768
▁Super	-8769
▁acting	-8770
▁finally	-8771
▁physicians	-8772
borne	-8773
▁Disc	-8774
▁interview	-8775
▁corresponding	-8776
ansion	-8777
▁$3,000	-8778
▁airline	-8779
▁Bacteria	-8780
▁Cro	-8781
ocard	-8782
oping	-8783
▁Rain	-8784
▁bulk	-8785
▁felt	-8786
▁diagram	-8787
▁Indonesia	-8788
▁gap	-8789
▁chop	-8790
▁asset	-8791
▁skill	-8792
ilation	-8793
▁inspection	-8794
▁Lib	-8795
ouston	-8796
▁Print	-8797
▁binds	-8798
▁sched	-8799
▁vet	-8800
▁marks	-8801
▁Gas	-8802
▁Log	-8803
▁Tim	-8804
▁Bible	-8805
holders	-8806
▁Animal	-8807
▁vagina	-8808
▁Location	-8809
▁breaking	-8810
3)	-8811
▁pean	-8812
▁carrots	-8813
▁concentrations	-8814
weed	-8815
▁directions	-8816
▁preventing	-8817
▁carp	-8818
▁enhance	-8819
▁veterin	-8820
▁Why	-8821
▁cer	-8822
onald	-8823
▁bark	-8824
▁pipe	-8825
celand	-8826
▁config	-8827
▁Represent	-8828
▁Directions	-8829
orig	-8830
▁brick	-8831
▁carefully	-8832
▁variables	-8833
aus	-8834
ipt	-8835
▁Fer	-8836
▁rom	-8837
▁Indiana	-8838
▁infants	-8839
▁vaccines	-8840
▁5%	-8841
▁Es	-8842
bound	-8843
ooked	-8844
▁Turk	-8845
▁calc	-8846
▁evapor	-8847
▁adjacent	-8848
▁relation	-8849
▁franchise	-8850
RP	-8851
▁iT	-8852
▁Apply	-8853
▁shoes	-8854
▁Calcium	-8855
absor	-8856
▁Located	-8857
idespread	-8858
▁AP	-8859
▁Jud	-8860
organic	-8861
▁freedom	-8862
▁decreased	-8863
▁furniture	-8864
▁mushrooms	-8865
asms	-8866
▁25%	-8867
▁bags	-8868
▁cycles	-8869
▁rating	-8870
▁Corporation	-8871
/4	-8872
▁desk	-8873
▁heated	-8874
▁Ken	-8875
▁LDL	-8876
▁Johnson	-8877
▁inventory	-8878
▁vertebrates	-8879
gu	-8880
this	-8881
atile	-8882
emble	-8883
▁borrow	-8884
▁cardiovascular	-8885
250	-8886
you	-8887
▁gone	-8888
urities	-8889
▁Secret	-8890
▁eruption	-8891
▁valuable	-8892
▁Hosp	-8893
▁systemic	-8894
itar	-8895
▁Fur	-8896
▁Gar	-8897
icate	-8898
▁Stone	-8899
▁hemat	-8900
▁partner	-8901
▁specialist	-8902
▁Skin	-8903
▁lawyer	-8904
▁entering	-8905
▁accompanied	-8906
▁facilit	-8907
vard	-8908
▁prompt	-8909
▁sector	-8910
▁Shakespeare	-8911
▁AM	-8912
▁genome	-8913
▁ulcers	-8914
▁Wed	-8915
▁covalent	-8916
’.	-8917
oups	-8918
▁Tru	-8919
▁dwarf	-8920
▁checks	-8921
▁desire	-8922
▁oceanic	-8923
▁fundamental	-8924
ragm	-8925
your	-8926
stein	-8927
▁eleph	-8928
▁lactose	-8929
ki	-8930
▁unw	-8931
icide	-8932
olars	-8933
▁crop	-8934
▁pear	-8935
▁Travel	-8936
▁Through	-8937
▁smoking	-8938
▁petroleum	-8939
▁artificial	-8940
awn	-8941
arin	-8942
▁0.0	-8943
itory	-8944
angered	-8945
idents	-8946
INI	-8947
▁UN	-8948
▁pets	-8949
▁greenhouse	-8950
nea	-8951
pass	-8952
▁hero	-8953
▁isot	-8954
▁imper	-8955
▁hybrid	-8956
▁elevated	-8957
▁electroly	-8958
▁assistance	-8959
▁widespread	-8960
▁Az	-8961
emic	-8962
▁Bot	-8963
▁ash	-8964
▁sof	-8965
▁intr	-8966
▁deals	-8967
▁spleen	-8968
▁artists	-8969
▁regarded	-8970
▁tablespoon	-8971
▁2006	-8972
▁Lymph	-8973
▁iTunes	-8974
▁stabil	-8975
▁updated	-8976
▁articles	-8977
▁electrom	-8978
oto	-8979
▁Bow	-8980
▁Mit	-8981
▁nob	-8982
▁Mond	-8983
▁diaph	-8984
▁guard	-8985
accharide	-8986
▁exclusive	-8987
▁illnesses	-8988
▁LLC	-8989
▁shut	-8990
▁Academ	-8991
▁Celtic	-8992
▁sustain	-8993
▁MD	-8994
▁Sav	-8995
▁termed	-8996
▁contents	-8997
▁hur	-8998
opause	-8999
▁whatever	-9000
▁NY	-9001
▁hon	-9002
ether	-9003
heated	-9004
▁Cancer	-9005
▁church	-9006
▁Ontario	-9007
▁platform	-9008
▁survival	-9009
▁competitive	-9010
abor	-9011
aceae	-9012
▁Lord	-9013
▁Weight	-9014
▁coldest	-9015
▁sitting	-9016
▁sulfate	-9017
68	-9018
fat	-9019
▁/ˈ	-9020
inst	-9021
2,000	-9022
▁wool	-9023
▁Chlor	-9024
▁facial	-9025
▁symmet	-9026
▁planted	-9027
▁leak	-9028
ossible	-9029
▁alkaline	-9030
47	-9031
OC	-9032
ais	-9033
▁Bul	-9034
▁Club	-9035
▁glomer	-9036
▁Between	-9037
▁anatomy	-9038
▁Bachelor	-9039
▁Hor	-9040
▁insol	-9041
▁assume	-9042
▁spiritual	-9043
▁Netherlands	-9044
isol	-9045
▁whom	-9046
▁cramps	-9047
orb	-9048
irty	-9049
▁Sov	-9050
isher	-9051
iverse	-9052
▁blind	-9053
▁edges	-9054
▁silicon	-9055
▁spice	-9056
▁depress	-9057
▁rabbits	-9058
ifts	-9059
▁lid	-9060
iatic	-9061
engers	-9062
▁rings	-9063
▁greens	-9064
▁planting	-9065
▁screening	-9066
▁supporting	-9067
dam	-9068
ubin	-9069
▁diver	-9070
▁putting	-9071
▁epidermis	-9072
▁partially	-9073
een	-9074
rob	-9075
aden	-9076
zema	-9077
▁Cit	-9078
▁Zip	-9079
▁inherit	-9080
▁preserv	-9081
▁breakfast	-9082
inse	-9083
umbers	-9084
▁helped	-9085
▁defense	-9086
1%	-9087
ouri	-9088
▁parking	-9089
tw	-9090
▁Short	-9091
▁Victoria	-9092
▁intensity	-9093
▁trend	-9094
lu	-9095
bour	-9096
▁Hill	-9097
▁Store	-9098
▁massive	-9099
▁ultimately	-9100
EE	-9101
psy	-9102
▁cock	-9103
▁golf	-9104
▁vinyl	-9105
▁census	-9106
▁pelvic	-9107
▁rising	-9108
▁valves	-9109
▁principle	-9110
▁450	-9111
innamon	-9112
▁prohib	-9113
▁regulations	-9114
DNA	-9115
▁Having	-9116
▁complexity	-9117
bur	-9118
▁Plate	-9119
▁Iceland	-9120
▁chickens	-9121
▁returned	-9122
omed	-9123
▁30%	-9124
▁Know	-9125
▁grey	-9126
▁gently	-9127
▁bipolar	-9128
▁stiffness	-9129
▁definitely	-9130
ested	-9131
gment	-9132
▁soup	-9133
▁heads	-9134
▁duoden	-9135
▁saying	-9136
▁strongly	-9137
▁influenced	-9138
▁performing	-9139
▁distinguish	-9140
ao	-9141
▁Gram	-9142
▁numb	-9143
ocracy	-9144
▁serum	-9145
rog	-9146
▁beet	-9147
phrine	-9148
▁Ident	-9149
▁oceans	-9150
▁computers	-9151
ja	-9152
km	-9153
kins	-9154
rors	-9155
▁cul	-9156
▁ahead	-9157
▁random	-9158
▁tradem	-9159
▁speakers	-9160
▁carbonate	-9161
▁extracted	-9162
▁Sodium	-9163
▁dedicated	-9164
4%	-9165
dish	-9166
▁Cold	-9167
ivered	-9168
profit	-9169
▁Bridge	-9170
▁seizures	-9171
▁delicious	-9172
aren	-9173
▁AND	-9174
▁Size	-9175
▁carcin	-9176
▁laptop	-9177
athyroid	-9178
fortunately	-9179
▁responsibility	-9180
CG	-9181
aric	-9182
elve	-9183
▁Van	-9184
imens	-9185
▁bioc	-9186
aceous	-9187
▁false	-9188
phosphate	-9189
▁interpret	-9190
▁rob	-9191
▁pole	-9192
▁error	-9193
▁subun	-9194
▁vacuum	-9195
▁Houston	-9196
▁Benefits	-9197
▁Executive	-9198
irubin	-9199
▁dimin	-9200
▁isolated	-9201
▁dizziness	-9202
8%	-9203
▁hat	-9204
▁tiger	-9205
factory	-9206
▁atrium	-9207
▁sheets	-9208
▁styles	-9209
▁defines	-9210
▁markets	-9211
▁[2	-9212
▁gym	-9213
▁ended	-9214
▁lakes	-9215
▁prime	-9216
▁sweat	-9217
▁imaging	-9218
aro	-9219
rav	-9220
iders	-9221
▁doors	-9222
▁minim	-9223
▁smart	-9224
▁reticulum	-9225
▁VA	-9226
olip	-9227
avian	-9228
▁$600	-9229
▁Base	-9230
▁Allow	-9231
paragus	-9232
▁Arctic	-9233
▁aerobic	-9234
▁circular	-9235
OP	-9236
nut	-9237
▁duck	-9238
▁seaf	-9239
▁torn	-9240
▁happy	-9241
▁Despite	-9242
▁learners	-9243
▁ru	-9244
▁NBA	-9245
▁Qual	-9246
▁chair	-9247
▁teach	-9248
▁apparent	-9249
▁gasoline	-9250
▁limestone	-9251
▁telephone	-9252
▁conditioning	-9253
3%	-9254
▁Rib	-9255
obacter	-9256
ocation	-9257
▁colony	-9258
▁apartment	-9259
This	-9260
osion	-9261
depend	-9262
▁orders	-9263
▁toilet	-9264
▁landscape	-9265
▁marijuana	-9266
▁experiment	-9267
eur	-9268
▁sky	-9269
rained	-9270
▁Muslim	-9271
▁consistent	-9272
ioc	-9273
▁zo	-9274
izoph	-9275
▁goat	-9276
igenous	-9277
metic	-9278
stract	-9279
TC	-9280
▁boiled	-9281
▁Network	-9282
▁ancestor	-9283
▁sul	-9284
▁vas	-9285
names	-9286
▁Oste	-9287
▁Motor	-9288
▁combines	-9289
▁Installation	-9290
▁lens	-9291
▁mine	-9292
reated	-9293
▁rooms	-9294
▁Outlook	-9295
▁borders	-9296
▁utility	-9297
sl	-9298
orrh	-9299
wich	-9300
▁wal	-9301
vol	-9302
etary	-9303
▁adhes	-9304
▁trace	-9305
▁observ	-9306
/2	-9307
▁enforce	-9308
▁Maryland	-9309
▁considering	-9310
▁concentrated	-9311
alo	-9312
ref	-9313
▁GA	-9314
andin	-9315
▁networks	-9316
▁diagnostic	-9317
1)	-9318
▁Lit	-9319
raine	-9320
▁Auto	-9321
▁shed	-9322
▁physi	-9323
▁superf	-9324
▁campaign	-9325
ean	-9326
izophren	-9327
▁certainly	-9328
▁traveling	-9329
anger	-9330
▁Nutrition	-9331
▁residency	-9332
92	-9333
flu	-9334
▁(200	-9335
▁prol	-9336
▁persist	-9337
▁Physical	-9338
▁constitu	-9339
▁internet	-9340
▁installing	-9341
▁remote	-9342
▁pathway	-9343
▁allowance	-9344
▁initially	-9345
rite	-9346
izers	-9347
tains	-9348
▁Golden	-9349
rypt	-9350
▁tried	-9351
▁outdoor	-9352
▁assigned	-9353
▁particle	-9354
▁Ty	-9355
▁ho	-9356
▁Tit	-9357
▁Modern	-9358
▁camera	-9359
▁tension	-9360
▁phosphorus	-9361
ycl	-9362
▁asc	-9363
▁bacon	-9364
▁mucous	-9365
def	-9366
▁FL	-9367
▁crab	-9368
▁pour	-9369
▁Queen	-9370
▁answers	-9371
▁legislation	-9372
▁Line	-9373
▁worn	-9374
▁Vietnam	-9375
▁anesthesia	-9376
ols	-9377
▁dip	-9378
▁1950	-9379
▁pier	-9380
aration	-9381
▁pelvis	-9382
▁recommends	-9383
izza	-9384
▁20-	-9385
▁GPA	-9386
▁III	-9387
▁ampl	-9388
▁fear	-9389
flower	-9390
▁ranks	-9391
▁Design	-9392
▁Survey	-9393
▁infant	-9394
▁neural	-9395
▁sister	-9396
▁submit	-9397
▁divorce	-9398
verb	-9399
▁Fish	-9400
▁fell	-9401
▁marg	-9402
▁rept	-9403
oscopy	-9404
utical	-9405
▁risks	-9406
▁recognize	-9407
▁11.	-9408
iduous	-9409
▁salad	-9410
▁instruct	-9411
▁substitute	-9412
97	-9413
▁DEF	-9414
▁Ess	-9415
▁bitter	-9416
▁dorsal	-9417
▁enable	-9418
▁reasonable	-9419
OH	-9420
▁brake	-9421
elsh	-9422
rais	-9423
▁ink	-9424
▁lux	-9425
3,000	-9426
▁brings	-9427
▁careful	-9428
▁psychological	-9429
oper	-9430
ccoli	-9431
▁narc	-9432
▁tablet	-9433
▁correctly	-9434
dess	-9435
abeth	-9436
▁Move	-9437
▁moss	-9438
coming	-9439
ication	-9440
section	-9441
▁Median	-9442
2%	-9443
▁130	-9444
▁30-	-9445
▁Fees	-9446
▁remod	-9447
▁election	-9448
▁pronunciation	-9449
▁Pok	-9450
▁songs	-9451
▁abbreviation	-9452
▁Luc	-9453
▁climb	-9454
▁lender	-9455
▁mining	-9456
▁horizontal	-9457
▁opportunities	-9458
▁80%	-9459
▁Cath	-9460
oxygen	-9461
square	-9462
▁shade	-9463
▁quantities	-9464
rics	-9465
▁ending	-9466
▁salivary	-9467
▁ownership	-9468
requ	-9469
▁apples	-9470
▁benefici	-9471
▁entitled	-9472
▁fructose	-9473
▁packages	-9474
▁skeleton	-9475
▁gestation	-9476
▁Jeff	-9477
▁drag	-9478
▁pad	-9479
spring	-9480
▁Sunday	-9481
▁showed	-9482
▁readily	-9483
▁spinach	-9484
▁Answered	-9485
▁suggested	-9486
▁proportion	-9487
▁laid	-9488
▁poem	-9489
bridge	-9490
▁dream	-9491
▁hollow	-9492
▁finance	-9493
▁Er	-9494
ollus	-9495
▁mouse	-9496
▁shelf	-9497
utation	-9498
▁nuclei	-9499
▁fitness	-9500
▁suscept	-9501
▁Ha	-9502
▁jun	-9503
▁unf	-9504
▁Fair	-9505
▁choices	-9506
▁elastic	-9507
da	-9508
mits	-9509
▁bills	-9510
▁tickets	-9511
▁insulation	-9512
iner	-9513
idine	-9514
▁Plus	-9515
▁chim	-9516
▁juris	-9517
▁aggreg	-9518
▁Section	-9519
▁Normally	-9520
▁achieved	-9521
▁cognitive	-9522
▁oxidation	-9523
rocy	-9524
unch	-9525
▁Near	-9526
▁dyst	-9527
▁theme	-9528
▁truth	-9529
▁basketball	-9530
autical	-9531
nership	-9532
iper	-9533
▁Way	-9534
▁winds	-9535
▁malign	-9536
▁simmer	-9537
uese	-9538
▁dies	-9539
▁safely	-9540
▁street	-9541
▁subspec	-9542
▁supposed	-9543
▁deductible	-9544
▁philosophy	-9545
otion	-9546
▁Kenn	-9547
▁Charl	-9548
riction	-9549
ximately	-9550
▁hardware	-9551
▁TB	-9552
erts	-9553
▁arc	-9554
▁alve	-9555
▁rural	-9556
▁episode	-9557
hydration	-9558
▁creatinine	-9559
▁constructed	-9560
▁lymphocytes	-9561
uria	-9562
▁USB	-9563
▁cig	-9564
▁pok	-9565
▁acne	-9566
▁$20,000	-9567
▁compact	-9568
▁mustard	-9569
▁headaches	-9570
▁successfully	-9571
”,	-9572
bel	-9573
▁scr	-9574
print	-9575
▁barb	-9576
▁math	-9577
▁Force	-9578
▁Andrew	-9579
▁Argent	-9580
▁redness	-9581
▁Language	-9582
▁altitude	-9583
▁predators	-9584
▁identification	-9585
▁13.	-9586
▁wolf	-9587
▁straw	-9588
▁views	-9589
▁prefix	-9590
▁discipl	-9591
▁bub	-9592
▁mur	-9593
allas	-9594
▁fatal	-9595
▁Change	-9596
▁Monday	-9597
▁Spring	-9598
acterial	-9599
▁amazing	-9600
▁falling	-9601
▁lightly	-9602
▁ribosomes	-9603
▁complicated	-9604
bon	-9605
arse	-9606
▁Ford	-9607
nesota	-9608
▁Soviet	-9609
▁diaphragm	-9610
▁teen	-9611
▁update	-9612
▁claimed	-9613
aceutical	-9614
oir	-9615
▁Dub	-9616
▁Royal	-9617
▁courts	-9618
▁inserted	-9619
ione	-9620
yers	-9621
▁Belg	-9622
▁rear	-9623
▁heater	-9624
▁guarantee	-9625
▁vaccination	-9626
▁considerably	-9627
▁NFL	-9628
▁bic	-9629
▁resin	-9630
▁Peninsula	-9631
▁Familiarity	-9632
EG	-9633
aft	-9634
abama	-9635
▁limb	-9636
▁spaces	-9637
▁Students	-9638
▁interpre	-9639
▁distinguished	-9640
vy	-9641
ups	-9642
▁Hi	-9643
ergic	-9644
▁Tweet	-9645
▁broker	-9646
▁bonuses	-9647
▁easiest	-9648
izophrenia	-9649
▁accredited	-9650
▁phenomenon	-9651
inus	-9652
elect	-9653
▁Mand	-9654
▁melting	-9655
opher	-9656
▁Explore	-9657
▁existence	-9658
ozyg	-9659
▁barley	-9660
▁medull	-9661
▁derives	-9662
▁tightly	-9663
▁Missouri	-9664
UM	-9665
▁diem	-9666
▁comprises	-9667
▁delivered	-9668
chem	-9669
enta	-9670
▁$80	-9671
▁calorie	-9672
:00	-9673
▁Ash	-9674
▁mir	-9675
olves	-9676
▁Tool	-9677
▁amph	-9678
▁ginger	-9679
▁Dia	-9680
imals	-9681
▁palm	-9682
▁Prices	-9683
▁suffer	-9684
▁$45	-9685
ceeds	-9686
▁arrival	-9687
▁connecting	-9688
ushed	-9689
white	-9690
▁leafy	-9691
▁panels	-9692
▁mathemat	-9693
▁representative	-9694
earing	-9695
▁orient	-9696
▁Members	-9697
▁gravity	-9698
ji	-9699
range	-9700
▁Antar	-9701
▁squash	-9702
▁lighter	-9703
▁climates	-9704
94	-9705
ulum	-9706
▁Excel	-9707
▁crisp	-9708
▁Typical	-9709
▁granted	-9710
▁3-4	-9711
▁Mah	-9712
▁Mes	-9713
urred	-9714
▁Soft	-9715
▁basal	-9716
opamine	-9717
▁grocer	-9718
▁videos	-9719
........	-9720
▁Certain	-9721
▁advantages	-9722
▁manufacturers	-9723
▁ride	-9724
lation	-9725
ulture	-9726
▁Facts	-9727
▁Author	-9728
▁Battle	-9729
▁ordinary	-9730
▁arrangement	-9731
He	-9732
chers	-9733
▁Islam	-9734
▁ozone	-9735
▁producer	-9736
▁pollution	-9737
▁serotonin	-9738
▁designated	-9739
ieval	-9740
▁rubber	-9741
▁differs	-9742
▁funeral	-9743
▁chlorophyll	-9744
▁competition	-9745
▁occupational	-9746
▁practitioner	-9747
noun	-9748
▁12,	-9749
▁12.	-9750
▁Jackson	-9751
▁designs	-9752
▁waiting	-9753
CE	-9754
uan	-9755
icut	-9756
▁bru	-9757
▁kin	-9758
lamyd	-9759
▁varied	-9760
▁legally	-9761
mus	-9762
umer	-9763
letes	-9764
▁Cross	-9765
08	-9766
▁Jes	-9767
yright	-9768
▁dinner	-9769
▁sexually	-9770
▁simplest	-9771
tub	-9772
▁$10.	-9773
▁uniform	-9774
▁PV	-9775
onge	-9776
▁Cond	-9777
▁Pour	-9778
▁Kansas	-9779
▁writer	-9780
rip	-9781
▁95	-9782
▁rays	-9783
▁Return	-9784
▁explan	-9785
clerosis	-9786
▁Seattle	-9787
▁(1.	-9788
▁Youn	-9789
▁ionic	-9790
ogether	-9791
▁sensor	-9792
▁exterior	-9793
▁pathogens	-9794
spe	-9795
▁Su	-9796
▁scen	-9797
stones	-9798
▁encomp	-9799
▁$50,000	-9800
▁osteoarthritis	-9801
▁truly	-9802
▁trachea	-9803
▁visitors	-9804
▁progressive	-9805
▁tablespoons	-9806
itz	-9807
rage	-9808
▁187	-9809
▁deeper	-9810
▁categor	-9811
▁Electric	-9812
▁Minnesota	-9813
▁psychologist	-9814
▁accel	-9815
▁injured	-9816
▁$100,000	-9817
▁composite	-9818
▁Eliz	-9819
▁pars	-9820
67	-9821
▁44	-9822
▁fav	-9823
▁anch	-9824
issipp	-9825
▁physics	-9826
▁microscopic	-9827
▁tone	-9828
▁faith	-9829
▁factory	-9830
▁operates	-9831
▁metamorphic	-9832
appe	-9833
▁125	-9834
▁325	-9835
▁Pep	-9836
itzer	-9837
▁gent	-9838
▁Express	-9839
▁trouble	-9840
▁colorless	-9841
uman	-9842
▁kWh	-9843
▁umb	-9844
brain	-9845
▁clar	-9846
▁secrete	-9847
▁Training	-9848
▁reproduce	-9849
▁eukaryotes	-9850
▁prevention	-9851
▁liz	-9852
▁drum	-9853
▁Music	-9854
▁stamp	-9855
▁Degree	-9856
▁forced	-9857
▁keyboard	-9858
▁DI	-9859
▁$5.	-9860
▁10-	-9861
▁tag	-9862
esity	-9863
▁embryo	-9864
▁Individ	-9865
▁Station	-9866
▁Exchange	-9867
▁inflamed	-9868
▁Additional	-9869
OD	-9870
-18	-9871
anz	-9872
▁Mr	-9873
best	-9874
ouch	-9875
stic	-9876
▁hen	-9877
▁Help	-9878
▁axon	-9879
▁fram	-9880
▁breathe	-9881
▁restric	-9882
▁constantly	-9883
▁genetically	-9884
uh	-9885
▁3.5	-9886
▁tect	-9887
INITION	-9888
▁concepts	-9889
▁classical	-9890
▁ml	-9891
arer	-9892
onate	-9893
▁Hung	-9894
▁Sche	-9895
▁drawn	-9896
▁printing	-9897
uto	-9898
class	-9899
▁loop	-9900
▁	-9901
e	-9902
a	-9903
t	-9904
o	-9905
i	-9906
n	-9907
s	-9908
r	-9909
l	-9910
h	-9911
d	-9912
c	-9913
u	-9914
m	-9915
f	-9916
p	-9917
g	-9918
y	-9919
.	-9920
b	-9921
w	-9922
,	-9923
v	-9924
k	-9925
0	-9926
T	-9927
1	-9928
A	-9929
S	-9930
I	-9931
-	-9932
2	-9933
C	-9934
x	-9935
)	-9936
(	-9937
P	-9938
M	-9939
5	-9940
3	-9941
B	-9942
D	-9943
E	-9944
R	-9945
F	-9946
N	-9947
4	-9948
'	-9949
$	-9950
H	-9951
z	-9952
L	-9953
O	-9954
q	-9955
:	-9956
W	-9957
j	-9958
9	-9959
6	-9960
G	-9961
8	-9962
7	-9963
U	-9964
/	-9965
V	-9966
Y	-9967
’	-9968
J	-9969
K	-9970
;	-9971
%	-9972
–	-9973
”	-9974
“	-9975
_	-9976
°	-9977
!	-9978
Z	-9979
—	-9980
Q	-9981
X	-9982
[	-9983
]	-9984
&	-9985
?	-9986
+	-9987
=	-9988
·	-9989
*	-9990
ˈ	-9991
#	-9992
é	-9993
£	-9994
‘	-9995
ə	-9996
